<pad>	0
<s>	0
</s>	0
<unk>	0
▁t	-0
▁a	-1
he	-2
in	-3
▁s	-4
▁the	-5
re	-6
on	-7
er	-8
▁w	-9
▁c	-10
▁.	-11
▁,	-12
▁o	-13
en	-14
▁p	-15
▁b	-16
an	-17
ed	-18
at	-19
▁f	-20
or	-21
▁m	-22
it	-23
es	-24
▁in	-25
is	-26
ar	-27
ing	-28
▁to	-29
▁h	-30
al	-31
▁an	-32
▁of	-33
▁d	-34
ou	-35
as	-36
ic	-37
id	-38
▁n	-39
le	-40
▁and	-41
ion	-42
ro	-43
il	-44
▁th	-45
ent	-46
▁re	-47
▁g	-48
▁l	-49
▁e	-50
ay	-51
om	-52
▁be	-53
▁u	-54
ve	-55
st	-56
ad	-57
▁on	-58
ut	-59
▁st	-60
▁sa	-61
▁for	-62
ol	-63
▁he	-64
ir	-65
ter	-66
ur	-67
▁k	-68
ac	-69
im	-70
ig	-71
am	-72
▁said	-73
ly	-74
ot	-75
ec	-76
▁is	-77
ation	-78
ver	-79
▁that	-80
ill	-81
ore	-82
▁we	-83
▁r	-84
et	-85
▁it	-86
ow	-87
ld	-88
▁wh	-89
us	-90
▁y	-91
▁as	-92
▁at	-93
th	-94
▁j	-95
▁was	-96
▁de	-97
ce	-98
▁al	-99
ith	-100
▁ch	-101
▁con	-102
▁with	-103
un	-104
oun	-105
ers	-106
ts	-107
▁ne	-108
ment	-109
res	-110
▁1	-111
se	-112
▁pro	-113
day	-114
op	-115
ate	-116
▁v	-117
ak	-118
est	-119
her	-120
el	-121
ul	-122
▁com	-123
and	-124
ain	-125
▁un	-126
ri	-127
ist	-128
▁le	-129
00	-130
ap	-131
ave	-132
rom	-133
ch	-134
ct	-135
ag	-136
▁2	-137
▁se	-138
▁sh	-139
▁from	-140
▁by	-141
igh	-142
os	-143
ial	-144
if	-145
▁has	-146
ort	-147
▁sp	-148
▁su	-149
▁af	-150
ear	-151
▁are	-152
ast	-153
▁ex	-154
▁his	-155
▁off	-156
▁have	-157
▁go	-158
art	-159
ity	-160
red	-161
pp	-162
ies	-163
▁ab	-164
ice	-165
oc	-166
▁pres	-167
▁tr	-168
ould	-169
out	-170
▁kore	-171
▁year	-172
end	-173
our	-174
▁will	-175
▁but	-176
em	-177
ident	-178
ab	-179
um	-180
ack	-181
ong	-182
▁rep	-183
▁not	-184
▁were	-185
▁ag	-186
▁ar	-187
ive	-188
ud	-189
▁pl	-190
all	-191
ian	-192
▁wor	-193
od	-194
ess	-195
qu	-196
▁who	-197
ia	-198
▁new	-199
iv	-200
▁pol	-201
ary	-202
▁or	-203
cc	-204
▁pe	-205
gh	-206
▁cl	-207
▁after	-208
▁they	-209
ry	-210
▁mon	-211
ie	-212
ight	-213
ect	-214
▁whe	-215
ust	-216
ok	-217
ren	-218
▁had	-219
ich	-220
ound	-221
ost	-222
mer	-223
ome	-224
ard	-225
ide	-226
▁been	-227
▁ro	-228
ant	-229
▁president	-230
ra	-231
ge	-232
▁this	-233
▁i	-234
▁min	-235
▁its	-236
▁tw	-237
ther	-238
▁their	-239
▁res	-240
▁peop	-241
▁say	-242
▁people	-243
▁out	-244
▁ad	-245
▁int	-246
ign	-247
▁offic	-248
▁about	-249
▁more	-250
ber	-251
ord	-252
ount	-253
ated	-254
vern	-255
uc	-256
ime	-257
▁ir	-258
ine	-259
▁pr	-260
▁per	-261
ans	-262
ions	-263
▁two	-264
▁part	-265
▁me	-266
▁exp	-267
▁govern	-268
ks	-269
▁sec	-270
▁inc	-271
▁comp	-272
▁up	-273
▁acc	-274
▁her	-275
▁3	-276
▁nor	-277
▁en	-278
ace	-279
▁korea	-280
▁dis	-281
▁which	-282
▁all	-283
▁over	-284
ous	-285
▁she	-286
▁one	-287
▁man	-288
ree	-289
ations	-290
iz	-291
ough	-292
▁cont	-293
so	-294
esday	-295
ke	-296
▁gr	-297
▁government	-298
age	-299
ates	-300
pt	-301
▁would	-302
▁official	-303
▁mil	-304
▁mar	-305
▁att	-306
▁br	-307
cent	-308
ib	-309
ip	-310
▁than	-311
▁north	-312
man	-313
▁state	-314
ub	-315
▁us	-316
ational	-317
▁inter	-318
▁count	-319
ors	-320
▁also	-321
▁do	-322
▁sc	-323
▁cr	-324
av	-325
ure	-326
▁fir	-327
own	-328
ang	-329
der	-330
ass	-331
▁im	-332
▁5	-333
▁comm	-334
ff	-335
▁other	-336
ical	-337
▁200	-338
ue	-339
ake	-340
ite	-341
ters	-342
▁no	-343
ile	-344
outh	-345
▁can	-346
nn	-347
▁ind	-348
ail	-349
▁last	-350
lo	-351
▁cnn	-352
▁day	-353
▁police	-354
hed	-355
aq	-356
▁mo	-357
▁jo	-358
ish	-359
▁when	-360
ited	-361
▁dec	-362
▁first	-363
ond	-364
ire	-365
▁south	-366
▁iraq	-367
▁4	-368
▁app	-369
ict	-370
ence	-371
ition	-372
▁la	-373
▁lead	-374
▁so	-375
▁qu	-376
ell	-377
▁te	-378
▁there	-379
▁wee	-380
▁milit	-381
illion	-382
▁inv	-383
ase	-384
▁bus	-385
lect	-386
▁co	-387
▁am	-388
▁bec	-389
▁dem	-390
act	-391
▁some	-392
▁into	-393
int	-394
ade	-395
▁report	-396
▁fin	-397
one	-398
▁car	-399
▁19	-400
▁ob	-401
ild	-402
▁cam	-403
iss	-404
ince	-405
▁ev	-406
ning	-407
og	-408
▁fr	-409
▁chin	-410
▁ear	-411
▁ser	-412
ied	-413
aus	-414
▁bl	-415
ep	-416
▁kill	-417
lic	-418
old	-419
enc	-420
▁war	-421
▁tal	-422
▁told	-423
oup	-424
▁op	-425
▁time	-426
ll	-427
ose	-428
▁world	-429
ned	-430
ress	-431
lear	-432
ru	-433
▁li	-434
▁years	-435
▁work	-436
ved	-437
▁percent	-438
ance	-439
▁pre	-440
▁fe	-441
▁call	-442
▁korean	-443
ally	-444
itt	-445
▁sun	-446
ama	-447
lud	-448
▁bo	-449
▁6	-450
ens	-451
▁elect	-452
ey	-453
li	-454
▁month	-455
very	-456
are	-457
▁them	-458
▁00	-459
▁week	-460
ater	-461
▁again	-462
▁accord	-463
▁united	-464
wn	-465
▁you	-466
orts	-467
▁par	-468
ities	-469
we	-470
con	-471
▁000	-472
▁act	-473
▁officials	-474
▁could	-475
ces	-476
▁fl	-477
fe	-478
▁if	-479
▁according	-480
oll	-481
▁under	-482
reat	-483
▁country	-484
▁includ	-485
arg	-486
▁bet	-487
hing	-488
▁imp	-489
▁party	-490
▁three	-491
▁cons	-492
ister	-493
▁tu	-494
▁ass	-495
▁monday	-496
▁says	-497
orm	-498
urs	-499
▁national	-500
▁rec	-501
ked	-502
▁air	-503
▁news	-504
ese	-505
▁sur	-506
▁lo	-507
uring	-508
vers	-509
ected	-510
▁tuesday	-511
▁military	-512
▁kn	-513
▁plan	-514
ause	-515
ons	-516
▁cent	-517
meric	-518
ory	-519
▁americ	-520
▁just	-521
▁intern	-522
▁wed	-523
▁states	-524
ings	-525
▁may	-526
▁reg	-527
▁ter	-528
ath	-529
able	-530
▁ban	-531
fore	-532
ital	-533
ult	-534
ach	-535
ft	-536
▁down	-537
▁group	-538
▁aut	-539
ublic	-540
▁obama	-541
▁old	-542
▁sen	-543
▁him	-544
istan	-545
▁minister	-546
▁attack	-547
▁end	-548
▁fore	-549
▁spok	-550
▁what	-551
▁win	-552
▁supp	-553
▁8	-554
▁wedn	-555
▁wednesday	-556
apan	-557
▁japan	-558
▁before	-559
ased	-560
▁ac	-561
land	-562
▁most	-563
▁dep	-564
▁rem	-565
▁since	-566
▁ann	-567
ah	-568
ouse	-569
▁rel	-570
leg	-571
▁against	-572
▁sunday	-573
▁econ	-574
▁show	-575
▁econom	-576
▁million	-577
uclear	-578
▁like	-579
▁now	-580
ious	-581
▁back	-582
rat	-583
▁cap	-584
ency	-585
▁any	-586
▁law	-587
▁how	-588
ket	-589
ents	-590
▁china	-591
▁bush	-592
med	-593
▁gen	-594
▁nuclear	-595
▁mem	-596
ix	-597
▁ph	-598
▁where	-599
rop	-600
▁des	-601
▁invest	-602
▁em	-603
row	-604
ced	-605
▁near	-606
app	-607
ists	-608
▁prov	-609
▁killed	-610
uss	-611
▁po	-612
▁med	-613
king	-614
way	-615
▁add	-616
▁prot	-617
▁secur	-618
▁during	-619
▁bro	-620
vel	-621
▁because	-622
▁city	-623
▁str	-624
aking	-625
▁spokes	-626
▁get	-627
▁made	-628
ursday	-629
▁thursday	-630
▁former	-631
ton	-632
▁bu	-633
gan	-634
▁ap	-635
led	-636
hn	-637
ame	-638
▁reported	-639
rest	-640
▁security	-641
az	-642
▁bar	-643
▁while	-644
▁only	-645
air	-646
ween	-647
▁ins	-648
other	-649
▁thr	-650
▁democ	-651
▁four	-652
▁between	-653
ered	-654
▁tur	-655
ating	-656
▁cour	-657
orn	-658
▁10	-659
ants	-660
▁ret	-661
▁house	-662
gr	-663
du	-664
▁high	-665
▁being	-666
▁bel	-667
▁def	-668
▁inf	-669
▁found	-670
▁z	-671
▁ma	-672
ution	-673
▁my	-674
oss	-675
▁compan	-676
eral	-677
▁brit	-678
▁sm	-679
▁gu	-680
▁col	-681
▁mus	-682
▁meet	-683
anc	-684
▁many	-685
rent	-686
ood	-687
▁stud	-688
und	-689
▁wom	-690
▁hel	-691
▁through	-692
▁camp	-693
ai	-694
▁vis	-695
▁miss	-696
▁tri	-697
hor	-698
▁conf	-699
▁set	-700
▁rele	-701
les	-702
▁child	-703
▁sy	-704
ester	-705
ral	-706
▁head	-707
ops	-708
ower	-709
xt	-710
ick	-711
▁called	-712
▁eu	-713
ert	-714
▁fam	-715
▁long	-716
▁author	-717
ments	-718
ret	-719
▁including	-720
▁play	-721
▁ref	-722
ared	-723
omb	-724
▁foreign	-725
▁ve	-726
ward	-727
▁press	-728
▁won	-729
▁did	-730
▁our	-731
ling	-732
▁international	-733
ork	-734
als	-735
ife	-736
▁run	-737
▁help	-738
▁opp	-739
▁vi	-740
ision	-741
ss	-742
ug	-743
ily	-744
ung	-745
olog	-746
▁six	-747
ands	-748
▁tro	-749
▁polit	-750
ange	-751
▁disc	-752
min	-753
▁9	-754
imes	-755
▁home	-756
▁reports	-757
oul	-758
▁che	-759
▁democrat	-760
ble	-761
▁20	-762
ms	-763
ric	-764
▁second	-765
ise	-766
bers	-767
me	-768
▁spokesman	-769
▁sch	-770
▁see	-771
▁eff	-772
▁iss	-773
▁days	-774
▁take	-775
▁statement	-776
▁sl	-777
▁conc	-778
ful	-779
▁eng	-780
▁next	-781
▁resp	-782
▁talks	-783
ual	-784
▁way	-785
ives	-786
▁public	-787
ting	-788
ized	-789
▁five	-790
▁announ	-791
▁num	-792
▁those	-793
▁death	-794
▁still	-795
ind	-796
rael	-797
▁israel	-798
ying	-799
atur	-800
ief	-801
▁bot	-802
▁serv	-803
ction	-804
▁court	-805
io	-806
▁even	-807
ures	-808
▁loc	-809
▁spe	-810
▁sus	-811
ries	-812
sel	-813
▁troops	-814
▁pak	-815
▁open	-816
▁investig	-817
▁make	-818
▁need	-819
▁det	-820
ross	-821
▁prime	-822
▁seoul	-823
hern	-824
iew	-825
▁ra	-826
▁maj	-827
ink	-828
ics	-829
ivers	-830
▁top	-831
▁least	-832
ecut	-833
▁pakistan	-834
ool	-835
▁terr	-836
▁ke	-837
▁around	-838
▁afgh	-839
▁sign	-840
istr	-841
▁american	-842
att	-843
osed	-844
ven	-845
gram	-846
istry	-847
ices	-848
▁recent	-849
▁another	-850
▁vot	-851
▁start	-852
iday	-853
▁hour	-854
▁susp	-855
▁contin	-856
▁program	-857
ady	-858
▁pal	-859
▁want	-860
▁cor	-861
ollow	-862
▁dire	-863
▁afghan	-864
▁market	-865
▁hum	-866
ible	-867
▁such	-868
oci	-869
▁follow	-870
▁ministry	-871
▁trans	-872
ages	-873
▁then	-874
ather	-875
▁clint	-876
▁pers	-877
▁oper	-878
▁viol	-879
ash	-880
per	-881
▁iran	-882
alth	-883
▁major	-884
▁put	-885
▁visit	-886
▁commun	-887
▁vict	-888
▁contro	-889
ior	-890
ee	-891
▁clinton	-892
ained	-893
▁leader	-894
▁washing	-895
▁every	-896
ody	-897
▁spec	-898
ged	-899
▁big	-900
▁washington	-901
▁russ	-902
▁mor	-903
▁bomb	-904
▁fil	-905
uch	-906
ians	-907
▁office	-908
ute	-909
osp	-910
▁should	-911
▁company	-912
osition	-913
▁dr	-914
▁cur	-915
▁retur	-916
▁secret	-917
te	-918
▁pa	-919
▁belie	-920
ights	-921
▁times	-922
▁saying	-923
▁agency	-924
ger	-925
▁expected	-926
ense	-927
ern	-928
▁presidential	-929
oot	-930
▁ed	-931
▁fire	-932
▁don	-933
▁look	-934
▁pass	-935
▁well	-936
▁forces	-937
ought	-938
▁dead	-939
au	-940
▁chief	-941
▁nation	-942
aim	-943
ative	-944
▁inst	-945
ient	-946
ular	-947
▁cond	-948
▁members	-949
ism	-950
ving	-951
▁ext	-952
▁very	-953
▁power	-954
rope	-955
▁direct	-956
hip	-957
aign	-958
ility	-959
▁europe	-960
atch	-961
▁children	-962
▁campaign	-963
son	-964
▁support	-965
▁sub	-966
ph	-967
ale	-968
▁sold	-969
ird	-970
▁ent	-971
▁far	-972
▁good	-973
▁billion	-974
feren	-975
▁bank	-976
▁main	-977
▁york	-978
amp	-979
▁both	-980
▁pop	-981
▁earli	-982
▁leg	-983
▁sever	-984
▁political	-985
▁199	-986
▁school	-987
ner	-988
▁est	-989
hes	-990
▁ge	-991
arch	-992
▁died	-993
aw	-994
▁mcc	-995
▁coun	-996
▁early	-997
▁leaders	-998
▁15	-999
ember	-1000
▁satur	-1001
▁authorities	-1002
▁john	-1003
▁deal	-1004
▁arrest	-1005
ull	-1006
▁rest	-1007
▁british	-1008
▁several	-1009
▁30	-1010
used	-1011
▁saturday	-1012
aster	-1013
rib	-1014
▁know	-1015
▁earlier	-1016
▁wr	-1017
ament	-1018
ock	-1019
▁sw	-1020
▁incre	-1021
▁hop	-1022
▁friday	-1023
▁election	-1024
ier	-1025
▁ce	-1026
▁white	-1027
gin	-1028
▁art	-1029
▁months	-1030
▁hal	-1031
▁tak	-1032
gg	-1033
▁number	-1034
▁crit	-1035
ific	-1036
ured	-1037
▁kim	-1038
▁countries	-1039
ark	-1040
ene	-1041
▁chinese	-1042
▁bur	-1043
gress	-1044
▁move	-1045
▁women	-1046
▁cre	-1047
▁meeting	-1048
▁pri	-1049
▁iraqi	-1050
▁arm	-1051
▁claim	-1052
▁left	-1053
▁democratic	-1054
ator	-1055
▁health	-1056
▁inj	-1057
▁team	-1058
▁going	-1059
▁11	-1060
▁sent	-1061
▁capital	-1062
ines	-1063
gy	-1064
reed	-1065
▁fed	-1066
ty	-1067
▁came	-1068
▁among	-1069
duc	-1070
▁neg	-1071
▁own	-1072
▁rul	-1073
▁terror	-1074
ison	-1075
line	-1076
▁took	-1077
port	-1078
▁poss	-1079
▁night	-1080
velop	-1081
▁build	-1082
▁pros	-1083
▁family	-1084
▁dif	-1085
artment	-1086
ued	-1087
▁12	-1088
▁associ	-1089
▁economic	-1090
▁aff	-1091
▁cal	-1092
▁hosp	-1093
▁general	-1094
iness	-1095
▁tour	-1096
up	-1097
▁person	-1098
▁har	-1099
▁expl	-1100
orters	-1101
▁organ	-1102
▁hospital	-1103
▁prev	-1104
▁char	-1105
▁star	-1106
▁used	-1107
▁later	-1108
▁univers	-1109
▁men	-1110
▁much	-1111
▁lee	-1112
ised	-1113
▁mid	-1114
ided	-1115
▁host	-1116
ij	-1117
▁ste	-1118
▁rese	-1119
▁human	-1120
ues	-1121
▁develop	-1122
▁cand	-1123
ves	-1124
ony	-1125
▁sum	-1126
▁peace	-1127
ky	-1128
ched	-1129
▁charg	-1130
▁life	-1131
▁ago	-1132
▁threat	-1133
▁yester	-1134
▁yesterday	-1135
▁bag	-1136
loy	-1137
ests	-1138
▁gre	-1139
ax	-1140
▁ant	-1141
▁alleg	-1142
stem	-1143
▁prom	-1144
▁secretary	-1145
its	-1146
ames	-1147
▁adv	-1148
▁tele	-1149
ins	-1150
▁pen	-1151
ened	-1152
ones	-1153
▁civ	-1154
▁allow	-1155
▁aust	-1156
▁announced	-1157
ont	-1158
ains	-1159
▁fac	-1160
▁sout	-1161
▁think	-1162
▁sim	-1163
▁record	-1164
uel	-1165
▁hy	-1166
▁free	-1167
▁admin	-1168
▁system	-1169
ired	-1170
ys	-1171
ets	-1172
▁site	-1173
▁test	-1174
▁post	-1175
bal	-1176
▁grow	-1177
▁held	-1178
▁stre	-1179
▁hold	-1180
▁past	-1181
▁area	-1182
▁met	-1183
▁glo	-1184
▁candid	-1185
▁san	-1186
▁ger	-1187
▁same	-1188
▁region	-1189
▁committ	-1190
lam	-1191
▁poll	-1192
ted	-1193
▁den	-1194
ference	-1195
▁financ	-1196
▁business	-1197
▁q	-1198
▁ur	-1199
ified	-1200
▁oil	-1201
▁invol	-1202
▁nort	-1203
▁tec	-1204
▁right	-1205
side	-1206
ending	-1207
▁use	-1208
ects	-1209
▁pat	-1210
▁const	-1211
▁unt	-1212
▁today	-1213
▁hand	-1214
▁hom	-1215
estin	-1216
ention	-1217
▁university	-1218
▁place	-1219
▁job	-1220
▁prop	-1221
▁based	-1222
ov	-1223
▁proble	-1224
icle	-1225
ering	-1226
▁case	-1227
▁stri	-1228
ury	-1229
iers	-1230
▁economy	-1231
▁cut	-1232
▁third	-1233
ness	-1234
aff	-1235
ize	-1236
duct	-1237
▁hit	-1238
▁opposition	-1239
view	-1240
▁bre	-1241
▁these	-1242
▁released	-1243
▁department	-1244
acy	-1245
▁roh	-1246
▁hill	-1247
▁agree	-1248
▁el	-1249
▁del	-1250
▁your	-1251
hd	-1252
▁il	-1253
▁morning	-1254
▁chr	-1255
▁media	-1256
▁financial	-1257
oti	-1258
▁quest	-1259
cept	-1260
iban	-1261
▁dri	-1262
riend	-1263
▁half	-1264
▁center	-1265
▁inform	-1266
aving	-1267
▁civil	-1268
▁prof	-1269
▁few	-1270
▁until	-1271
▁negoti	-1272
▁100	-1273
▁republic	-1274
co	-1275
▁ang	-1276
▁sit	-1277
▁come	-1278
▁find	-1279
▁trave	-1280
▁fight	-1281
▁hours	-1282
ondon	-1283
▁jun	-1284
▁late	-1285
▁islam	-1286
▁local	-1287
▁london	-1288
▁taliban	-1289
▁25	-1290
▁fund	-1291
▁indust	-1292
▁whether	-1293
▁without	-1294
ns	-1295
▁50	-1296
ides	-1297
to	-1298
cess	-1299
▁bill	-1300
▁decl	-1301
aly	-1302
iting	-1303
aring	-1304
▁youn	-1305
istration	-1306
amed	-1307
▁disp	-1308
omin	-1309
ended	-1310
▁defense	-1311
▁som	-1312
▁weap	-1313
▁attacks	-1314
▁close	-1315
▁emer	-1316
▁vide	-1317
▁water	-1318
▁requ	-1319
▁taken	-1320
ik	-1321
▁led	-1322
▁nearly	-1323
▁nations	-1324
▁0	-1325
▁sex	-1326
▁sing	-1327
▁appro	-1328
ason	-1329
▁jan	-1330
▁beij	-1331
▁step	-1332
▁beijing	-1333
▁space	-1334
▁strong	-1335
▁workers	-1336
mp	-1337
ually	-1338
uck	-1339
▁money	-1340
ever	-1341
▁afghanistan	-1342
head	-1343
▁japanese	-1344
▁palestin	-1345
ished	-1346
▁others	-1347
▁austral	-1348
▁stand	-1349
▁geor	-1350
▁vo	-1351
▁mccain	-1352
ds	-1353
▁py	-1354
▁does	-1355
aining	-1356
▁plans	-1357
▁polic	-1358
▁organiz	-1359
▁sour	-1360
▁deb	-1361
▁short	-1362
▁ris	-1363
ready	-1364
ators	-1365
▁stop	-1366
▁administration	-1367
ived	-1368
▁best	-1369
▁laun	-1370
ats	-1371
▁exper	-1372
▁trad	-1373
▁comple	-1374
iving	-1375
▁baghd	-1376
▁larg	-1377
▁already	-1378
▁service	-1379
iate	-1380
▁appe	-1381
▁german	-1382
▁central	-1383
▁lar	-1384
▁land	-1385
▁mass	-1386
▁baghdad	-1387
self	-1388
▁beh	-1389
▁18	-1390
▁town	-1391
▁kid	-1392
▁along	-1393
ove	-1394
▁happ	-1395
▁keep	-1396
els	-1397
▁conv	-1398
▁hist	-1399
ield	-1400
▁activ	-1401
▁began	-1402
▁small	-1403
▁web	-1404
pped	-1405
▁confir	-1406
▁rights	-1407
▁es	-1408
aged	-1409
▁real	-1410
mb	-1411
▁fail	-1412
▁13	-1413
ject	-1414
▁food	-1415
▁rece	-1416
▁force	-1417
ission	-1418
▁env	-1419
rench	-1420
▁level	-1421
▁dam	-1422
▁army	-1423
▁known	-1424
▁control	-1425
ints	-1426
ology	-1427
▁let	-1428
▁er	-1429
▁hol	-1430
▁miles	-1431
▁christ	-1432
raw	-1433
▁away	-1434
▁face	-1435
▁emb	-1436
▁jud	-1437
▁thous	-1438
▁produc	-1439
ium	-1440
ney	-1441
augh	-1442
▁parli	-1443
▁province	-1444
▁16	-1445
ounded	-1446
▁weeks	-1447
▁prison	-1448
irl	-1449
▁sn	-1450
▁each	-1451
▁current	-1452
▁decision	-1453
▁parliament	-1454
aper	-1455
▁french	-1456
▁sal	-1457
▁return	-1458
utes	-1459
▁lab	-1460
▁vote	-1461
▁clear	-1462
▁techn	-1463
▁however	-1464
ck	-1465
ump	-1466
▁wal	-1467
▁across	-1468
by	-1469
▁vir	-1470
▁av	-1471
▁lat	-1472
ae	-1473
ined	-1474
▁eight	-1475
▁conference	-1476
ety	-1477
▁film	-1478
▁southern	-1479
ban	-1480
▁gas	-1481
idence	-1482
▁soldiers	-1483
▁40	-1484
▁ju	-1485
▁ham	-1486
▁attem	-1487
▁barack	-1488
▁release	-1489
▁young	-1490
olution	-1491
▁woman	-1492
▁discuss	-1493
ims	-1494
▁aid	-1495
mak	-1496
▁information	-1497
oo	-1498
get	-1499
▁14	-1500
▁issue	-1501
str	-1502
▁hot	-1503
gency	-1504
less	-1505
▁pay	-1506
▁asked	-1507
▁trade	-1508
▁bord	-1509
▁girl	-1510
▁violence	-1511
▁relations	-1512
cil	-1513
yang	-1514
oon	-1515
▁east	-1516
▁here	-1517
▁point	-1518
▁weapons	-1519
▁global	-1520
▁arrested	-1521
▁foot	-1522
▁coup	-1523
▁agreement	-1524
▁final	-1525
▁militants	-1526
▁russia	-1527
go	-1528
▁making	-1529
sh	-1530
▁red	-1531
▁march	-1532
▁tot	-1533
▁care	-1534
▁park	-1535
ession	-1536
▁change	-1537
▁prices	-1538
lood	-1539
▁form	-1540
▁taking	-1541
▁students	-1542
▁fact	-1543
▁demand	-1544
▁execut	-1545
▁european	-1546
▁thousands	-1547
▁largest	-1548
▁inte	-1549
▁following	-1550
erv	-1551
ploy	-1552
be	-1553
avy	-1554
▁friend	-1555
▁israeli	-1556
▁reb	-1557
▁killing	-1558
▁di	-1559
▁mal	-1560
▁body	-1561
▁key	-1562
▁arri	-1563
ically	-1564
ina	-1565
ases	-1566
▁northern	-1567
▁cost	-1568
▁video	-1569
ongyang	-1570
▁appear	-1571
▁seven	-1572
▁gun	-1573
▁tax	-1574
▁give	-1575
▁calif	-1576
ried	-1577
▁seen	-1578
▁afric	-1579
bo	-1580
▁internet	-1581
▁caus	-1582
▁become	-1583
▁federal	-1584
▁fur	-1585
ience	-1586
▁black	-1587
▁ident	-1588
▁scient	-1589
ards	-1590
▁fall	-1591
▁import	-1592
▁agreed	-1593
▁californ	-1594
har	-1595
▁got	-1596
▁mod	-1597
▁large	-1598
▁alleged	-1599
▁desp	-1600
▁port	-1601
▁added	-1602
▁california	-1603
ars	-1604
eng	-1605
▁net	-1606
▁great	-1607
▁concern	-1608
ank	-1609
▁22	-1610
▁britain	-1611
ham	-1612
▁might	-1613
ressed	-1614
▁telev	-1615
▁points	-1616
▁tre	-1617
▁list	-1618
▁begin	-1619
▁committee	-1620
▁pyongyang	-1621
▁hund	-1622
▁never	-1623
▁trying	-1624
▁hundred	-1625
▁targ	-1626
▁congress	-1627
▁rad	-1628
mediate	-1629
▁prosecut	-1630
ech	-1631
▁batt	-1632
▁cris	-1633
▁hig	-1634
uge	-1635
estern	-1636
▁interview	-1637
▁article	-1638
▁elections	-1639
ially	-1640
▁ahead	-1641
▁chair	-1642
▁director	-1643
rap	-1644
▁island	-1645
▁outside	-1646
▁ri	-1647
▁jour	-1648
▁working	-1649
ract	-1650
uary	-1651
ption	-1652
▁shar	-1653
▁despite	-1654
▁immediate	-1655
ittle	-1656
▁accused	-1657
ley	-1658
rug	-1659
ergy	-1660
▁went	-1661
▁associated	-1662
hers	-1663
▁meas	-1664
ection	-1665
▁likely	-1666
ef	-1667
ored	-1668
▁super	-1669
▁partic	-1670
▁emergency	-1671
mar	-1672
▁gaz	-1673
mit	-1674
▁mean	-1675
atic	-1676
▁hard	-1677
▁less	-1678
▁perf	-1679
▁charges	-1680
▁palestinian	-1681
oy	-1682
▁must	-1683
▁fut	-1684
ulation	-1685
eda	-1686
lom	-1687
lymp	-1688
▁cho	-1689
▁olymp	-1690
▁shot	-1691
▁broad	-1692
▁little	-1693
▁somet	-1694
ival	-1695
▁coll	-1696
▁estim	-1697
▁crisis	-1698
br	-1699
▁500	-1700
▁dav	-1701
▁mos	-1702
▁senior	-1703
▁possible	-1704
▁research	-1705
▁low	-1706
▁earth	-1707
▁side	-1708
▁investigation	-1709
▁ord	-1710
ached	-1711
▁2006	-1712
▁border	-1713
▁energy	-1714
ults	-1715
▁sept	-1716
▁union	-1717
▁critic	-1718
▁road	-1719
▁amb	-1720
▁france	-1721
▁groups	-1722
▁council	-1723
▁process	-1724
lish	-1725
▁chang	-1726
▁companies	-1727
▁qa	-1728
▁los	-1729
▁too	-1730
▁station	-1731
▁lot	-1732
ccess	-1733
▁commission	-1734
ler	-1735
imin	-1736
▁dip	-1737
▁priv	-1738
▁policy	-1739
▁fell	-1740
▁grand	-1741
▁january	-1742
▁interest	-1743
ew	-1744
▁west	-1745
▁believe	-1746
urch	-1747
▁bas	-1748
▁suff	-1749
▁question	-1750
▁mot	-1751
▁newsp	-1752
itions	-1753
▁boy	-1754
▁mat	-1755
▁val	-1756
▁corp	-1757
▁deleg	-1758
▁total	-1759
▁latest	-1760
com	-1761
▁mag	-1762
▁june	-1763
▁command	-1764
che	-1765
▁sugg	-1766
▁coast	-1767
▁reporters	-1768
rem	-1769
▁game	-1770
▁live	-1771
▁qaeda	-1772
ape	-1773
▁ill	-1774
▁occ	-1775
▁suic	-1776
par	-1777
▁tell	-1778
▁within	-1779
▁continue	-1780
inc	-1781
▁mov	-1782
▁dest	-1783
▁july	-1784
ald	-1785
ona	-1786
▁desc	-1787
astern	-1788
▁showed	-1789
▁attempt	-1790
▁special	-1791
▁previous	-1792
pr	-1793
▁gl	-1794
▁shut	-1795
▁front	-1796
nal	-1797
▁diplom	-1798
▁toward	-1799
▁travel	-1800
▁further	-1801
▁drug	-1802
▁sk	-1803
most	-1804
▁due	-1805
▁x	-1806
ming	-1807
▁198	-1808
▁line	-1809
▁break	-1810
▁watch	-1811
▁building	-1812
▁rev	-1813
▁member	-1814
▁america	-1815
▁24	-1816
▁cross	-1817
▁candidate	-1818
ta	-1819
▁anti	-1820
▁once	-1821
▁prim	-1822
▁treat	-1823
ann	-1824
▁capt	-1825
▁name	-1826
▁carry	-1827
raft	-1828
▁dist	-1829
itution	-1830
▁minutes	-1831
▁respons	-1832
▁weekend	-1833
▁cust	-1834
▁england	-1835
iven	-1836
▁mur	-1837
ane	-1838
▁ran	-1839
▁george	-1840
▁efforts	-1841
ush	-1842
▁sea	-1843
▁ship	-1844
ertain	-1845
▁success	-1846
▁gaza	-1847
▁september	-1848
ighb	-1849
▁neighb	-1850
▁round	-1851
eration	-1852
▁consid	-1853
▁mess	-1854
▁anim	-1855
▁airport	-1856
▁order	-1857
▁hundreds	-1858
▁television	-1859
ino	-1860
▁soc	-1861
▁doll	-1862
▁lost	-1863
▁class	-1864
▁storm	-1865
▁lawmak	-1866
▁ruling	-1867
▁medical	-1868
▁div	-1869
idents	-1870
▁suicide	-1871
raf	-1872
▁equ	-1873
▁mak	-1874
▁event	-1875
▁pot	-1876
epend	-1877
▁employ	-1878
▁independ	-1879
ening	-1880
▁surve	-1881
▁sol	-1882
uation	-1883
▁using	-1884
▁russian	-1885
ways	-1886
▁rom	-1887
▁consum	-1888
duction	-1889
ibility	-1890
▁americans	-1891
ya	-1892
▁cit	-1893
▁squ	-1894
asing	-1895
▁race	-1896
▁sched	-1897
▁study	-1898
▁explos	-1899
▁repres	-1900
▁victory	-1901
oman	-1902
▁nomin	-1903
▁serious	-1904
▁ky	-1905
▁hur	-1906
icted	-1907
▁demon	-1908
▁comput	-1909
▁future	-1910
▁series	-1911
ude	-1912
▁hus	-1913
thing	-1914
▁resc	-1915
▁soon	-1916
▁stay	-1917
▁better	-1918
cl	-1919
na	-1920
▁term	-1921
▁deter	-1922
ril	-1923
▁father	-1924
▁mother	-1925
▁target	-1926
▁full	-1927
▁confirmed	-1928
urg	-1929
uty	-1930
ague	-1931
▁nat	-1932
▁trip	-1933
▁mount	-1934
▁street	-1935
▁communist	-1936
oint	-1937
▁react	-1938
▁journal	-1939
▁industry	-1940
▁60	-1941
▁feb	-1942
▁december	-1943
ades	-1944
▁tem	-1945
woman	-1946
▁phot	-1947
harraf	-1948
▁bring	-1949
▁musharraf	-1950
ili	-1951
xic	-1952
▁april	-1953
▁action	-1954
▁dev	-1955
▁cell	-1956
▁ever	-1957
▁fuel	-1958
▁ground	-1959
ze	-1960
▁tv	-1961
▁doct	-1962
▁almost	-1963
▁wa	-1964
aced	-1965
apped	-1966
▁view	-1967
▁aug	-1968
▁dou	-1969
▁book	-1970
▁heart	-1971
▁able	-1972
▁homes	-1973
▁injured	-1974
▁wounded	-1975
▁ty	-1976
oring	-1977
▁though	-1978
▁yet	-1979
▁really	-1980
iam	-1981
cast	-1982
mber	-1983
▁hope	-1984
▁mich	-1985
▁champ	-1986
▁inside	-1987
dle	-1988
▁oct	-1989
ada	-1990
ari	-1991
ten	-1992
▁veh	-1993
ising	-1994
▁init	-1995
▁angel	-1996
▁enough	-1997
▁having	-1998
▁describ	-1999
▁started	-2000
▁important	-2001
arc	-2002
ees	-2003
imb	-2004
key	-2005
▁alth	-2006
▁history	-2007
▁koreans	-2008
▁although	-2009
ule	-2010
ring	-2011
▁vol	-2012
▁involved	-2013
ances	-2014
▁nove	-2015
▁analy	-2016
▁david	-2017
▁november	-2018
▁asia	-2019
▁behind	-2020
▁coming	-2021
▁sources	-2022
▁chairman	-2023
iron	-2024
▁cle	-2025
▁wall	-2026
▁western	-2027
▁quar	-2028
▁result	-2029
▁season	-2030
▁republican	-2031
ani	-2032
pre	-2033
▁ken	-2034
▁roc	-2035
▁believed	-2036
▁fighting	-2037
que	-2038
▁fig	-2039
▁wife	-2040
▁given	-2041
▁accept	-2042
▁king	-2043
▁rice	-2044
▁design	-2045
▁environ	-2046
itional	-2047
▁leading	-2048
▁dise	-2049
▁room	-2050
▁areas	-2051
▁amid	-2052
▁cred	-2053
▁exch	-2054
▁nine	-2055
▁arg	-2056
▁vill	-2057
▁private	-2058
▁21	-2059
▁comes	-2060
▁whose	-2061
▁flight	-2062
yal	-2063
▁india	-2064
ruction	-2065
▁protest	-2066
▁environment	-2067
ida	-2068
tle	-2069
▁labor	-2070
▁stock	-2071
▁search	-2072
zy	-2073
▁arab	-2074
▁rich	-2075
ferent	-2076
uled	-2077
▁ide	-2078
▁coal	-2079
▁indic	-2080
▁suggest	-2081
imate	-2082
▁sell	-2083
▁conduct	-2084
▁problems	-2085
bc	-2086
▁detail	-2087
▁organization	-2088
ole	-2089
▁ball	-2090
▁role	-2091
▁plane	-2092
▁august	-2093
▁middle	-2094
▁ben	-2095
▁hyun	-2096
▁victims	-2097
▁different	-2098
▁fear	-2099
▁son	-2100
aps	-2101
▁bad	-2102
▁2005	-2103
▁newspaper	-2104
▁represent	-2105
▁doc	-2106
▁mer	-2107
▁base	-2108
▁doz	-2109
▁mill	-2110
▁insp	-2111
▁evidence	-2112
▁23	-2113
▁pet	-2114
▁comb	-2115
▁kidn	-2116
▁rate	-2117
▁surv	-2118
▁voters	-2119
itted	-2120
▁wants	-2121
▁planned	-2122
umb	-2123
ably	-2124
ging	-2125
▁distr	-2126
▁heavy	-2127
▁mic	-2128
ellig	-2129
▁infl	-2130
▁wanted	-2131
▁stru	-2132
▁shoot	-2133
▁mission	-2134
▁intellig	-2135
▁scientists	-2136
pl	-2137
▁gave	-2138
▁mark	-2139
▁light	-2140
▁music	-2141
▁turned	-2142
ago	-2143
▁cat	-2144
▁paul	-2145
▁australia	-2146
ster	-2147
▁looking	-2148
▁increase	-2149
▁cab	-2150
▁dro	-2151
ruary	-2152
▁didn	-2153
▁brown	-2154
▁compet	-2155
▁problem	-2156
▁february	-2157
▁crow	-2158
▁withd	-2159
▁results	-2160
ex	-2161
oud	-2162
▁board	-2163
▁assist	-2164
ograp	-2165
▁read	-2166
▁resign	-2167
▁islamic	-2168
gest	-2169
▁wat	-2170
arent	-2171
itive	-2172
▁calls	-2173
▁illeg	-2174
▁senate	-2175
▁analyst	-2176
▁pan	-2177
▁2004	-2178
▁flor	-2179
▁lawy	-2180
▁movie	-2181
▁train	-2182
▁deaths	-2183
▁spokeswoman	-2184
▁crew	-2185
▁goal	-2186
▁announce	-2187
let	-2188
off	-2189
▁age	-2190
iding	-2191
▁pack	-2192
▁green	-2193
▁received	-2194
cer	-2195
oted	-2196
▁sad	-2197
▁ver	-2198
▁asse	-2199
▁tried	-2200
▁summit	-2201
▁markets	-2202
▁appeared	-2203
▁incident	-2204
▁bid	-2205
▁feel	-2206
▁conserv	-2207
fic	-2208
wan	-2209
▁ll	-2210
▁recently	-2211
▁supporters	-2212
▁ren	-2213
▁prosecutors	-2214
bert	-2215
▁bab	-2216
▁lim	-2217
▁negotiations	-2218
▁os	-2219
▁pub	-2220
▁tib	-2221
verage	-2222
▁price	-2223
▁assemb	-2224
▁loss	-2225
esters	-2226
▁couple	-2227
▁situation	-2228
ober	-2229
▁turn	-2230
gether	-2231
▁october	-2232
▁thought	-2233
▁together	-2234
▁protesters	-2235
▁docu	-2236
▁tibet	-2237
▁scheduled	-2238
▁development	-2239
▁intelligence	-2240
ays	-2241
ify	-2242
duce	-2243
▁bri	-2244
▁mad	-2245
▁saf	-2246
▁cele	-2247
▁district	-2248
▁constitution	-2249
▁nas	-2250
▁needed	-2251
▁foc	-2252
▁separ	-2253
▁florida	-2254
▁germany	-2255
▁something	-2256
kyo	-2257
men	-2258
work	-2259
▁vice	-2260
▁cause	-2261
▁citiz	-2262
▁hotel	-2263
▁tokyo	-2264
aughter	-2265
ma	-2266
▁ca	-2267
▁kil	-2268
atives	-2269
▁games	-2270
▁disease	-2271
band	-2272
down	-2273
wide	-2274
▁cup	-2275
▁lin	-2276
▁services	-2277
▁adm	-2278
▁chall	-2279
▁hamas	-2280
▁caused	-2281
▁issues	-2282
▁mom	-2283
orney	-2284
▁attorney	-2285
▁technology	-2286
▁immediately	-2287
▁bh	-2288
▁2008	-2289
▁hong	-2290
▁seem	-2291
▁simp	-2292
▁judge	-2293
▁leban	-2294
▁growth	-2295
ael	-2296
itz	-2297
▁lif	-2298
▁tit	-2299
▁clos	-2300
▁deep	-2301
▁paris	-2302
▁staff	-2303
▁online	-2304
▁decided	-2305
▁include	-2306
▁operation	-2307
▁uk	-2308
▁moo	-2309
▁shi	-2310
▁musl	-2311
▁biggest	-2312
▁eastern	-2313
▁getting	-2314
▁growing	-2315
▁reached	-2316
ador	-2317
▁aim	-2318
▁fat	-2319
▁quick	-2320
▁church	-2321
rew	-2322
ula	-2323
ager	-2324
▁popular	-2325
ayed	-2326
▁kar	-2327
▁2003	-2328
▁beat	-2329
▁prep	-2330
▁impro	-2331
▁lower	-2332
▁claimed	-2333
▁quarter	-2334
▁coalition	-2335
han	-2336
ots	-2337
use	-2338
▁gold	-2339
▁missing	-2340
▁pressure	-2341
▁lawmakers	-2342
▁esc	-2343
▁try	-2344
lished	-2345
▁award	-2346
▁assembly	-2347
▁officers	-2348
▁saw	-2349
▁colle	-2350
▁expect	-2351
▁apparent	-2352
lin	-2353
▁league	-2354
▁strike	-2355
▁warning	-2356
▁pakistani	-2357
▁nec	-2358
▁pos	-2359
itness	-2360
▁summer	-2361
▁exchange	-2362
stand	-2363
▁polls	-2364
▁closed	-2365
roy	-2366
▁hillary	-2367
12	-2368
iana	-2369
over	-2370
▁kind	-2371
ctions	-2372
▁phone	-2373
▁project	-2374
▁tex	-2375
▁deli	-2376
▁sark	-2377
▁angeles	-2378
▁condition	-2379
▁executive	-2380
yl	-2381
ither	-2382
▁effect	-2383
▁speech	-2384
▁provide	-2385
wh	-2386
oid	-2387
ball	-2388
here	-2389
▁tens	-2390
▁joint	-2391
▁mexic	-2392
▁warned	-2393
▁officer	-2394
val	-2395
▁26	-2396
▁fav	-2397
▁sarko	-2398
▁remain	-2399
▁survey	-2400
▁protests	-2401
▁educ	-2402
▁jail	-2403
overed	-2404
▁democr	-2405
▁issued	-2406
▁charged	-2407
ni	-2408
▁id	-2409
▁repl	-2410
▁failed	-2411
▁instit	-2412
hu	-2413
▁dang	-2414
▁jobs	-2415
▁prob	-2416
▁share	-2417
▁address	-2418
▁protect	-2419
raz	-2420
▁effort	-2421
▁sarkozy	-2422
hen	-2423
igr	-2424
ode	-2425
▁wind	-2426
▁counter	-2427
▁rob	-2428
▁pain	-2429
▁lives	-2430
▁transf	-2431
▁hostages	-2432
50	-2433
ories	-2434
ential	-2435
▁match	-2436
▁speak	-2437
▁texas	-2438
▁running	-2439
ural	-2440
▁fle	-2441
▁olympic	-2442
▁democracy	-2443
zz	-2444
▁send	-2445
▁asian	-2446
▁flood	-2447
▁experts	-2448
▁respond	-2449
▁speaking	-2450
rents	-2451
▁cann	-2452
▁pred	-2453
▁opened	-2454
▁social	-2455
▁justice	-2456
den	-2457
▁je	-2458
▁story	-2459
ounding	-2460
▁colomb	-2461
▁complete	-2462
▁majority	-2463
bs	-2464
cy	-2465
▁hon	-2466
▁doing	-2467
▁community	-2468
▁offer	-2469
▁sales	-2470
▁things	-2471
▁launched	-2472
ires	-2473
ners	-2474
▁field	-2475
▁higher	-2476
▁named	-2477
▁forced	-2478
▁turkey	-2479
▁request	-2480
▁why	-2481
▁became	-2482
▁programs	-2483
▁continued	-2484
ilar	-2485
▁eth	-2486
arian	-2487
▁bhut	-2488
▁cult	-2489
▁battle	-2490
▁dail	-2491
▁safety	-2492
▁civilians	-2493
ott	-2494
▁wild	-2495
▁county	-2496
ounds	-2497
▁senator	-2498
▁ten	-2499
ality	-2500
▁talk	-2501
▁celebr	-2502
▁diffic	-2503
▁embass	-2504
▁virgin	-2505
▁researc	-2506
▁radio	-2507
▁urged	-2508
▁disapp	-2509
▁primary	-2510
iod	-2511
▁ey	-2512
▁bir	-2513
▁tom	-2514
▁tor	-2515
ensive	-2516
▁leave	-2517
▁arrived	-2518
▁concerns	-2519
▁described	-2520
▁difficult	-2521
▁residents	-2522
uted	-2523
▁rule	-2524
▁shows	-2525
▁parties	-2526
▁prevent	-2527
▁similar	-2528
udi	-2529
▁tim	-2530
▁damage	-2531
▁himself	-2532
▁indones	-2533
▁present	-2534
▁governor	-2535
▁measures	-2536
▁delegates	-2537
▁association	-2538
bi	-2539
ana	-2540
aled	-2541
vere	-2542
▁coop	-2543
▁compl	-2544
▁daily	-2545
▁comment	-2546
▁stat	-2547
▁often	-2548
▁bhutto	-2549
▁denied	-2550
▁oh	-2551
while	-2552
▁wide	-2553
▁william	-2554
▁witness	-2555
▁carrying	-2556
▁daughter	-2557
▁conn	-2558
▁cerem	-2559
▁period	-2560
▁estimated	-2561
▁identified	-2562
ortun	-2563
▁cars	-2564
▁prem	-2565
▁message	-2566
airs	-2567
ares	-2568
uries	-2569
▁dism	-2570
▁hous	-2571
jected	-2572
▁fired	-2573
▁river	-2574
▁access	-2575
▁deputy	-2576
▁destroy	-2577
▁ordered	-2578
ne	-2579
ote	-2580
▁bod	-2581
▁buy	-2582
▁africa	-2583
▁credit	-2584
▁calling	-2585
ron	-2586
uses	-2587
▁cop	-2588
▁non	-2589
▁ple	-2590
▁2002	-2591
▁kong	-2592
▁laws	-2593
▁cabin	-2594
▁store	-2595
▁husband	-2596
▁progress	-2597
▁australian	-2598
▁resolution	-2599
▁28	-2600
▁29	-2601
▁always	-2602
▁parents	-2603
▁demonstr	-2604
aces	-2605
iles	-2606
▁300	-2607
▁wel	-2608
ilies	-2609
▁cast	-2610
▁chance	-2611
▁launch	-2612
▁robert	-2613
▁average	-2614
▁82	-2615
ocks	-2616
pted	-2617
▁enc	-2618
ashed	-2619
▁done	-2620
▁scre	-2621
▁cases	-2622
▁traff	-2623
▁danger	-2624
▁minute	-2625
▁missile	-2626
▁families	-2627
▁meanwhile	-2628
▁production	-2629
▁dog	-2630
▁safe	-2631
▁smok	-2632
▁reform	-2633
▁michael	-2634
▁profess	-2635
▁champions	-2636
▁population	-2637
iff	-2638
▁hun	-2639
anmar	-2640
▁rout	-2641
▁myanmar	-2642
oming	-2643
▁funds	-2644
▁legal	-2645
▁scene	-2646
▁strugg	-2647
▁illegal	-2648
▁computer	-2649
ask	-2650
igin	-2651
heast	-2652
▁details	-2653
▁included	-2654
▁suspected	-2655
uf	-2656
ania	-2657
hest	-2658
▁club	-2659
▁pict	-2660
▁royal	-2661
▁spent	-2662
▁ambass	-2663
▁brought	-2664
▁certain	-2665
▁iranian	-2666
▁citizens	-2667
▁particip	-2668
▁withdraw	-2669
uk	-2670
ata	-2671
isl	-2672
▁brief	-2673
▁engine	-2674
▁cas	-2675
▁pled	-2676
▁armed	-2677
▁camer	-2678
ecution	-2679
▁sanctions	-2680
▁candidates	-2681
▁increasing	-2682
ches	-2683
iter	-2684
▁esp	-2685
▁resum	-2686
▁expressed	-2687
▁aw	-2688
▁cy	-2689
▁bit	-2690
▁ele	-2691
▁bene	-2692
▁freed	-2693
▁custom	-2694
▁played	-2695
▁embassy	-2696
▁related	-2697
▁followed	-2698
▁31	-2699
▁ah	-2700
▁risk	-2701
▁guard	-2702
▁living	-2703
▁transport	-2704
iled	-2705
▁dow	-2706
▁fif	-2707
▁mater	-2708
▁aftern	-2709
▁commer	-2710
kn	-2711
rel	-2712
ences	-2713
▁mart	-2714
▁nato	-2715
▁rise	-2716
▁broke	-2717
▁carried	-2718
▁english	-2719
▁terrorist	-2720
irc	-2721
▁abd	-2722
▁mob	-2723
▁obs	-2724
▁rally	-2725
▁worst	-2726
▁afternoon	-2727
mal	-2728
▁80	-2729
ault	-2730
▁bal	-2731
▁sud	-2732
enced	-2733
▁lear	-2734
▁mult	-2735
selves	-2736
▁doesn	-2737
▁ended	-2738
▁ready	-2739
▁trial	-2740
▁fourth	-2741
▁accident	-2742
▁comments	-2743
▁contract	-2744
▁activities	-2745
ilt	-2746
▁imm	-2747
▁pun	-2748
▁means	-2749
▁track	-2750
▁kilome	-2751
▁friends	-2752
▁streets	-2753
een	-2754
read	-2755
▁ber	-2756
▁huge	-2757
▁snow	-2758
▁favor	-2759
▁brother	-2760
▁opening	-2761
▁refused	-2762
▁democrats	-2763
▁nomination	-2764
mad	-2765
▁chic	-2766
▁crowd	-2767
▁parts	-2768
▁raised	-2769
▁refuge	-2770
▁allowed	-2771
▁cabinet	-2772
▁doctors	-2773
▁millions	-2774
▁researchers	-2775
ev	-2776
tt	-2777
ges	-2778
hel	-2779
▁fly	-2780
agement	-2781
▁claims	-2782
▁legisl	-2783
▁leaving	-2784
▁position	-2785
▁returned	-2786
▁bud	-2787
▁fun	-2788
▁rose	-2789
engers	-2790
▁blood	-2791
▁rival	-2792
▁bodies	-2793
▁source	-2794
▁account	-2795
▁african	-2796
▁controvers	-2797
for	-2798
▁tai	-2799
▁occur	-2800
▁matter	-2801
▁rocket	-2802
▁ambassador	-2803
▁feat	-2804
▁turk	-2805
▁advis	-2806
▁crash	-2807
▁putin	-2808
▁resol	-2809
▁struck	-2810
ead	-2811
iant	-2812
lant	-2813
uing	-2814
▁fem	-2815
aging	-2816
▁rain	-2817
▁terrorism	-2818
▁conditions	-2819
ceed	-2820
iance	-2821
▁braz	-2822
▁circ	-2823
▁sure	-2824
▁surr	-2825
▁rescue	-2826
▁mis	-2827
atory	-2828
insula	-2829
▁needs	-2830
ighters	-2831
▁origin	-2832
▁peninsula	-2833
hood	-2834
ruct	-2835
▁love	-2836
▁poor	-2837
▁birth	-2838
▁hopes	-2839
▁sites	-2840
▁stage	-2841
ilities	-2842
▁prince	-2843
▁instead	-2844
▁passengers	-2845
rial	-2846
▁typ	-2847
▁material	-2848
▁operations	-2849
amin	-2850
▁cub	-2851
▁pul	-2852
aries	-2853
going	-2854
▁blast	-2855
▁reach	-2856
▁traffic	-2857
amb	-2858
▁gn	-2859
▁ts	-2860
▁avail	-2861
▁estab	-2862
▁cities	-2863
▁mexico	-2864
▁quoted	-2865
▁forward	-2866
ara	-2867
▁pic	-2868
inois	-2869
▁sect	-2870
▁debate	-2871
▁passed	-2872
▁taiwan	-2873
▁illinois	-2874
lled	-2875
onse	-2876
▁fans	-2877
▁gener	-2878
ability	-2879
▁course	-2880
▁holding	-2881
▁trading	-2882
▁published	-2883
aped	-2884
wood	-2885
▁brazil	-2886
▁spread	-2887
▁communic	-2888
▁interior	-2889
ha	-2890
▁nom	-2891
▁pil	-2892
▁banks	-2893
▁natur	-2894
▁announcement	-2895
iet	-2896
ift	-2897
ows	-2898
▁35	-2899
resp	-2900
▁card	-2901
▁feet	-2902
▁hands	-2903
▁liber	-2904
▁restr	-2905
▁spending	-2906
▁relationship	-2907
ece	-2908
aves	-2909
▁pus	-2910
▁swe	-2911
istic	-2912
▁repe	-2913
▁temp	-2914
▁common	-2915
▁nothing	-2916
▁available	-2917
arks	-2918
▁bul	-2919
▁eas	-2920
ograph	-2921
▁chung	-2922
▁micro	-2923
▁smith	-2924
▁network	-2925
ped	-2926
▁gnp	-2927
itten	-2928
▁draw	-2929
▁evac	-2930
▁carol	-2931
▁index	-2932
▁saudi	-2933
▁histor	-2934
▁insurg	-2935
ding	-2936
hold	-2937
▁fel	-2938
▁pow	-2939
izing	-2940
▁ital	-2941
▁crack	-2942
▁franc	-2943
▁makes	-2944
▁chicago	-2945
▁suffered	-2946
emy	-2947
▁90	-2948
itor	-2949
▁dae	-2950
anish	-2951
pping	-2952
▁focus	-2953
▁moved	-2954
▁surpr	-2955
▁murder	-2956
▁currently	-2957
owed	-2958
▁aud	-2959
▁und	-2960
▁aimed	-2961
▁concer	-2962
▁rising	-2963
ification	-2964
ria	-2965
ateg	-2966
idge	-2967
▁pur	-2968
▁sle	-2969
▁vac	-2970
▁2001	-2971
▁astr	-2972
itting	-2973
▁influ	-2974
▁annual	-2975
▁charge	-2976
▁longer	-2977
▁nomine	-2978
▁worked	-2979
▁contact	-2980
▁schools	-2981
▁ceremony	-2982
▁broadcast	-2983
▁education	-2984
▁treatment	-2985
▁investment	-2986
▁201	-2987
▁dom	-2988
▁hen	-2989
licop	-2990
▁soci	-2991
▁teen	-2992
▁trou	-2993
▁crimin	-2994
▁helicop	-2995
▁winning	-2996
▁declared	-2997
oned	-2998
▁196	-2999
▁pac	-3000
▁data	-3001
▁sens	-3002
▁teac	-3003
▁worth	-3004
ization	-3005
▁cannot	-3006
▁either	-3007
▁signed	-3008
▁square	-3009
▁decades	-3010
▁virginia	-3011
▁themselves	-3012
atell	-3013
ients	-3014
▁born	-3015
▁harry	-3016
▁steps	-3017
▁lawyer	-3018
▁letter	-3019
▁rebels	-3020
▁affairs	-3021
▁analysts	-3022
▁movement	-3023
▁response	-3024
▁signific	-3025
ugh	-3026
▁ol	-3027
▁mail	-3028
iation	-3029
▁cover	-3030
▁creat	-3031
▁thing	-3032
▁helped	-3033
▁muslim	-3034
▁satell	-3035
▁players	-3036
▁neighbor	-3037
▁increased	-3038
▁institute	-3039
▁diplomatic	-3040
▁400	-3041
▁bak	-3042
▁dar	-3043
▁ice	-3044
icles	-3045
▁lack	-3046
inking	-3047
▁above	-3048
ruption	-3049
▁moment	-3050
▁professor	-3051
▁particular	-3052
ike	-3053
fully	-3054
overy	-3055
▁adding	-3056
▁atlant	-3057
▁century	-3058
▁weather	-3059
▁injuries	-3060
▁personal	-3061
▁probably	-3062
▁employees	-3063
▁discovered	-3064
▁dub	-3065
▁bang	-3066
▁appoint	-3067
▁remains	-3068
▁consider	-3069
▁commander	-3070
▁kilometers	-3071
ker	-3072
▁45	-3073
▁moon	-3074
▁toll	-3075
▁italy	-3076
▁challen	-3077
▁construction	-3078
hol	-3079
▁asp	-3080
▁blo	-3081
aling	-3082
ocked	-3083
▁date	-3084
ological	-3085
▁questions	-3086
▁investigators	-3087
▁flo	-3088
▁fill	-3089
▁female	-3090
▁highest	-3091
▁quickly	-3092
▁destroyed	-3093
▁opt	-3094
▁nasa	-3095
▁rare	-3096
▁spot	-3097
▁weak	-3098
▁plant	-3099
▁dozens	-3100
▁indian	-3101
▁overse	-3102
▁playing	-3103
▁understand	-3104
aur	-3105
hua	-3106
▁32	-3107
▁ho	-3108
cing	-3109
▁row	-3110
▁xin	-3111
itude	-3112
▁fort	-3113
apping	-3114
▁spain	-3115
▁create	-3116
▁deploy	-3117
▁dollars	-3118
▁italian	-3119
▁natural	-3120
▁industrial	-3121
▁independent	-3122
uit	-3123
▁displ	-3124
▁jones	-3125
▁giving	-3126
▁earthqu	-3127
▁manager	-3128
▁turkish	-3129
avez	-3130
▁exc	-3131
▁sil	-3132
preme	-3133
▁2000	-3134
▁vers	-3135
idered	-3136
▁chavez	-3137
▁dollar	-3138
▁reason	-3139
▁supreme	-3140
▁anything	-3141
▁shooting	-3142
▁threatened	-3143
nel	-3144
erve	-3145
gypt	-3146
▁abb	-3147
▁ful	-3148
▁unc	-3149
▁arch	-3150
▁drop	-3151
▁farm	-3152
▁espec	-3153
▁collect	-3154
▁numbers	-3155
▁seeking	-3156
▁approved	-3157
▁detained	-3158
▁transfer	-3159
▁especially	-3160
▁everything	-3161
gu	-3162
▁bi	-3163
▁ii	-3164
▁jer	-3165
▁nic	-3166
▁mosc	-3167
▁paid	-3168
▁phys	-3169
▁egypt	-3170
▁maint	-3171
▁mayor	-3172
▁stren	-3173
▁necess	-3174
▁changes	-3175
▁vehicle	-3176
▁allegedly	-3177
▁considered	-3178
af	-3179
arm	-3180
omp	-3181
aded	-3182
▁die	-3183
house	-3184
▁song	-3185
isters	-3186
▁marri	-3187
▁speed	-3188
▁nearby	-3189
▁hearing	-3190
▁richard	-3191
of	-3192
nam	-3193
olf	-3194
▁kh	-3195
enez	-3196
room	-3197
west	-3198
▁las	-3199
▁mac	-3200
aught	-3201
craft	-3202
jects	-3203
▁defe	-3204
▁hear	-3205
▁idea	-3206
▁jack	-3207
▁regul	-3208
▁barrel	-3209
▁commit	-3210
▁corpor	-3211
▁levels	-3212
▁moscow	-3213
▁review	-3214
▁evening	-3215
▁politic	-3216
▁opportun	-3217
▁allegations	-3218
▁unf	-3219
▁posted	-3220
▁single	-3221
▁streng	-3222
▁massive	-3223
▁additional	-3224
wor	-3225
▁fre	-3226
▁code	-3227
▁kept	-3228
▁range	-3229
▁sides	-3230
▁condem	-3231
▁sexual	-3232
▁mountain	-3233
yan	-3234
come	-3235
▁abs	-3236
ional	-3237
▁euro	-3238
▁lang	-3239
▁georg	-3240
▁wrong	-3241
▁perfor	-3242
▁dropped	-3243
▁session	-3244
▁carolina	-3245
▁apparently	-3246
▁prosecution	-3247
akes	-3248
▁kur	-3249
onaut	-3250
▁blue	-3251
▁doub	-3252
▁join	-3253
▁shin	-3254
▁autom	-3255
▁check	-3256
▁title	-3257
▁happened	-3258
▁attention	-3259
▁bird	-3260
▁stra	-3261
▁backed	-3262
▁driving	-3263
▁remarks	-3264
▁convicted	-3265
▁investors	-3266
▁potential	-3267
▁criticized	-3268
▁responsible	-3269
▁significant	-3270
hi	-3271
ylv	-3272
body	-3273
mine	-3274
▁cro	-3275
▁dig	-3276
ively	-3277
▁8212	-3278
▁reve	-3279
▁shiite	-3280
▁aircraft	-3281
▁critical	-3282
▁training	-3283
quar	-3284
nsylv	-3285
▁jump	-3286
▁muse	-3287
▁extra	-3288
▁pennsylv	-3289
▁responsibility	-3290
▁sel	-3291
lines	-3292
▁firm	-3293
▁propos	-3294
▁visitors	-3295
pts	-3296
▁rod	-3297
apers	-3298
hered	-3299
▁purs	-3300
▁soft	-3301
▁cance	-3302
▁costs	-3303
▁sharp	-3304
▁venez	-3305
▁cancer	-3306
▁xinhua	-3307
▁college	-3308
▁society	-3309
▁admitted	-3310
▁venezuel	-3311
▁environmental	-3312
▁parliamentary	-3313
ken	-3314
▁ow	-3315
ream	-3316
▁ale	-3317
▁ron	-3318
▁uri	-3319
isted	-3320
phone	-3321
▁whom	-3322
▁crime	-3323
▁heard	-3324
ination	-3325
▁attend	-3326
▁animals	-3327
▁alliance	-3328
▁products	-3329
▁authority	-3330
▁buildings	-3331
ado	-3332
agon	-3333
ises	-3334
▁haw	-3335
▁arms	-3336
▁ohio	-3337
▁boost	-3338
▁subst	-3339
▁planning	-3340
▁indonesia	-3341
▁prisoners	-3342
▁conservative	-3343
▁independence	-3344
▁pennsylvania	-3345
kes	-3346
gery	-3347
▁bin	-3348
ufact	-3349
▁seat	-3350
ailand	-3351
▁museum	-3352
▁territ	-3353
▁consumer	-3354
▁manufact	-3355
▁thailand	-3356
▁performan	-3357
omm	-3358
▁ep	-3359
iger	-3360
▁raid	-3361
▁shop	-3362
▁medic	-3363
▁offered	-3364
▁student	-3365
▁suspects	-3366
▁management	-3367
back	-3368
▁ans	-3369
▁shr	-3370
▁jose	-3371
▁rail	-3372
▁benef	-3373
▁scand	-3374
▁pacific	-3375
▁respect	-3376
▁someone	-3377
▁written	-3378
▁electric	-3379
▁committed	-3380
▁worldwide	-3381
▁ps	-3382
▁size	-3383
lement	-3384
▁motor	-3385
▁serve	-3386
▁combat	-3387
▁defend	-3388
▁severe	-3389
▁holiday	-3390
▁attacked	-3391
▁rejected	-3392
▁separate	-3393
▁beginning	-3394
▁previously	-3395
ware	-3396
▁gar	-3397
▁lib	-3398
alled	-3399
orter	-3400
where	-3401
▁baby	-3402
▁abbas	-3403
▁domin	-3404
▁recon	-3405
▁tests	-3406
▁works	-3407
▁suspect	-3408
▁leadership	-3409
ao	-3410
rs	-3411
bed	-3412
resh	-3413
▁hall	-3414
▁rules	-3415
▁seats	-3416
▁forest	-3417
▁regard	-3418
▁custody	-3419
▁nominee	-3420
▁shortly	-3421
▁includes	-3422
▁vehicles	-3423
ibly	-3424
ston	-3425
estic	-3426
▁ties	-3427
▁ruled	-3428
▁rather	-3429
▁commerc	-3430
▁regional	-3431
▁remained	-3432
▁insurgents	-3433
ezz	-3434
▁lu	-3435
ider	-3436
rote	-3437
▁bail	-3438
▁phil	-3439
▁rock	-3440
▁avoid	-3441
▁langu	-3442
▁penal	-3443
▁allies	-3444
▁figure	-3445
▁herald	-3446
▁reactor	-3447
▁actually	-3448
▁proposed	-3449
▁criticism	-3450
pper	-3451
▁opin	-3452
▁contr	-3453
▁signs	-3454
▁occurred	-3455
▁explosion	-3456
▁corruption	-3457
aks	-3458
ran	-3459
soft	-3460
▁bol	-3461
▁adop	-3462
▁mort	-3463
▁sale	-3464
▁giant	-3465
▁takes	-3466
▁votes	-3467
▁georgia	-3468
▁everyone	-3469
▁olympics	-3470
▁repeated	-3471
▁microsoft	-3472
▁satellite	-3473
▁earthquake	-3474
▁mel	-3475
asion	-3476
duced	-3477
▁zone	-3478
▁refer	-3479
▁relig	-3480
▁apolog	-3481
▁linked	-3482
▁moving	-3483
▁shares	-3484
▁product	-3485
▁civilian	-3486
▁starting	-3487
▁mc	-3488
▁ul	-3489
know	-3490
▁han	-3491
▁sky	-3492
uters	-3493
lywood	-3494
▁paper	-3495
▁pract	-3496
▁treas	-3497
▁wrote	-3498
▁charac	-3499
▁events	-3500
▁elected	-3501
▁figures	-3502
▁improve	-3503
▁inspect	-3504
▁conducted	-3505
▁documents	-3506
rid	-3507
▁pi	-3508
▁bay	-3509
▁jew	-3510
▁sty	-3511
ently	-3512
field	-3513
oting	-3514
▁word	-3515
▁fifth	-3516
respond	-3517
▁climate	-3518
▁correspond	-3519
wer	-3520
▁hu	-3521
chie	-3522
▁lad	-3523
▁mas	-3524
icket	-3525
vered	-3526
▁slow	-3527
▁built	-3528
▁minor	-3529
▁myung	-3530
knowled	-3531
▁impact	-3532
▁attract	-3533
▁complex	-3534
▁science	-3535
▁acknowled	-3536
▁commercial	-3537
abe	-3538
ray	-3539
ych	-3540
▁fer	-3541
▁actor	-3542
▁evacu	-3543
▁fresh	-3544
▁anyone	-3545
▁flights	-3546
▁determin	-3547
eth	-3548
ris	-3549
▁36	-3550
rain	-3551
force	-3552
using	-3553
▁fair	-3554
▁remo	-3555
▁yong	-3556
▁envoy	-3557
▁faces	-3558
▁girls	-3559
▁james	-3560
▁marine	-3561
▁bombing	-3562
▁spanish	-3563
▁surgery	-3564
▁addition	-3565
▁football	-3566
car	-3567
ivid	-3568
ping	-3569
▁ali	-3570
▁deg	-3571
▁fest	-3572
▁guil	-3573
▁trig	-3574
▁wood	-3575
▁bombs	-3576
▁brain	-3577
▁prize	-3578
▁rates	-3579
▁perform	-3580
▁showing	-3581
ota	-3582
unt	-3583
vin	-3584
▁fish	-3585
▁jung	-3586
▁sant	-3587
▁blamed	-3588
▁guilty	-3589
▁itself	-3590
▁player	-3591
ox	-3592
ties	-3593
▁flu	-3594
▁cash	-3595
▁ahmad	-3596
▁clean	-3597
▁spoke	-3598
▁career	-3599
▁created	-3600
▁restaur	-3601
▁electron	-3602
▁tourists	-3603
▁fa	-3604
berg	-3605
▁alex	-3606
encies	-3607
▁fears	-3608
▁terms	-3609
▁encour	-3610
▁reduce	-3611
▁marriage	-3612
ogn	-3613
▁et	-3614
▁acad	-3615
▁jong	-3616
iction	-3617
▁behav	-3618
▁sleep	-3619
▁animal	-3620
▁citing	-3621
▁mosque	-3622
▁regime	-3623
▁confirm	-3624
▁suggested	-3625
▁au	-3626
abwe	-3627
▁fro	-3628
▁gat	-3629
ullah	-3630
▁hurt	-3631
▁self	-3632
▁zimb	-3633
▁gates	-3634
▁moham	-3635
▁queen	-3636
▁mobile	-3637
▁normal	-3638
▁recogn	-3639
▁colombia	-3640
▁domestic	-3641
▁peaceful	-3642
▁policies	-3643
▁provided	-3644
▁zimbabwe	-3645
▁concerned	-3646
▁ministers	-3647
▁operating	-3648
ites	-3649
rators	-3650
▁filed	-3651
▁mostly	-3652
▁criminal	-3653
▁astronaut	-3654
ga	-3655
sp	-3656
hib	-3657
ica	-3658
▁ha	-3659
anda	-3660
▁ens	-3661
▁names	-3662
▁owner	-3663
▁shown	-3664
▁winds	-3665
▁screen	-3666
▁contrib	-3667
▁dispute	-3668
▁finance	-3669
▁measure	-3670
▁compared	-3671
▁patients	-3672
▁necessary	-3673
lies	-3674
rupt	-3675
usal	-3676
▁mah	-3677
▁rap	-3678
▁gall	-3679
▁push	-3680
▁panel	-3681
▁words	-3682
▁supply	-3683
▁damaged	-3684
▁francis	-3685
▁individ	-3686
▁replace	-3687
▁lebanese	-3688
▁terrorists	-3689
ba	-3690
erc	-3691
mert	-3692
▁ask	-3693
▁ton	-3694
▁gang	-3695
▁mary	-3696
▁stem	-3697
▁ways	-3698
▁intro	-3699
▁assass	-3700
▁stocks	-3701
▁lebanon	-3702
▁stopped	-3703
▁promised	-3704
▁dangerous	-3705
▁neighborhood	-3706
▁palestinians	-3707
ett	-3708
uan	-3709
▁150	-3710
▁bbc	-3711
▁dut	-3712
▁ram	-3713
ature	-3714
erson	-3715
▁heav	-3716
▁ilbo	-3717
▁kids	-3718
▁kurd	-3719
▁sher	-3720
▁achie	-3721
▁confl	-3722
▁drugs	-3723
▁magaz	-3724
▁bridge	-3725
▁voting	-3726
▁shuttle	-3727
▁affected	-3728
▁sentence	-3729
▁remaining	-3730
▁suspended	-3731
bel	-3732
▁33	-3733
ears	-3734
keep	-3735
onym	-3736
▁lay	-3737
▁ven	-3738
▁fast	-3739
▁mach	-3740
▁magn	-3741
▁shel	-3742
friend	-3743
▁lines	-3744
▁princ	-3745
▁sought	-3746
▁suspic	-3747
▁wearing	-3748
▁militant	-3749
▁positive	-3750
▁hollywood	-3751
▁involving	-3752
ips	-3753
uff	-3754
▁ki	-3755
asts	-3756
mark	-3757
sein	-3758
▁box	-3759
▁cru	-3760
▁fbi	-3761
▁gul	-3762
▁sho	-3763
ounts	-3764
▁seed	-3765
ulated	-3766
▁insur	-3767
▁assault	-3768
▁powerful	-3769
▁protection	-3770
bre	-3771
▁da	-3772
▁inn	-3773
▁pir	-3774
▁cold	-3775
▁else	-3776
▁felt	-3777
▁flag	-3778
▁navy	-3779
▁voted	-3780
▁amount	-3781
▁joined	-3782
▁failure	-3783
▁ongoing	-3784
▁village	-3785
▁designed	-3786
▁document	-3787
▁territory	-3788
▁opportunity	-3789
▁performance	-3790
dog	-3791
▁gh	-3792
▁600	-3793
▁god	-3794
▁hav	-3795
▁yah	-3796
▁yang	-3797
coming	-3798
utions	-3799
▁joins	-3800
▁truck	-3801
ression	-3802
▁appeal	-3803
▁collaps	-3804
▁conflict	-3805
▁gathered	-3806
▁headquar	-3807
▁meetings	-3808
▁overseas	-3809
▁activists	-3810
▁confidence	-3811
▁journalists	-3812
mas	-3813
ovo	-3814
itch	-3815
road	-3816
▁abe	-3817
ander	-3818
ordin	-3819
▁prec	-3820
▁seek	-3821
▁surf	-3822
▁color	-3823
▁psych	-3824
▁raise	-3825
▁caught	-3826
▁malays	-3827
▁placed	-3828
▁seized	-3829
▁waters	-3830
▁dismiss	-3831
▁annivers	-3832
▁cooperation	-3833
my	-3834
dam	-3835
ttp	-3836
vert	-3837
▁oce	-3838
agers	-3839
▁http	-3840
▁wasn	-3841
▁wing	-3842
▁apple	-3843
▁beach	-3844
▁crude	-3845
▁memor	-3846
▁images	-3847
▁helping	-3848
▁opinion	-3849
▁considering	-3850
▁possibility	-3851
de	-3852
ps	-3853
reg	-3854
olic	-3855
omic	-3856
iling	-3857
▁drive	-3858
▁enter	-3859
▁olmert	-3860
▁winter	-3861
▁initial	-3862
▁straight	-3863
▁experience	-3864
▁anniversary	-3865
▁headquarters	-3866
▁investigating	-3867
▁38	-3868
▁42	-3869
▁ze	-3870
▁800	-3871
▁isn	-3872
▁van	-3873
▁ves	-3874
apore	-3875
arily	-3876
▁serb	-3877
▁below	-3878
▁peter	-3879
▁quake	-3880
▁trail	-3881
▁voice	-3882
▁pulled	-3883
▁critics	-3884
▁propert	-3885
▁customers	-3886
▁singapore	-3887
▁telephone	-3888
▁reportedly	-3889
lus	-3890
nes	-3891
▁ko	-3892
burg	-3893
igan	-3894
▁anc	-3895
▁alco	-3896
▁lone	-3897
▁dozen	-3898
▁hurric	-3899
▁immigr	-3900
▁looked	-3901
▁violent	-3902
▁sentenced	-3903
▁throughout	-3904
cri	-3905
iro	-3906
▁ok	-3907
ancy	-3908
ille	-3909
erate	-3910
light	-3911
orrow	-3912
▁clin	-3913
▁item	-3914
▁qual	-3915
▁homel	-3916
▁laden	-3917
▁veter	-3918
▁yahoo	-3919
▁entire	-3920
▁resume	-3921
▁pledged	-3922
▁regular	-3923
▁reuters	-3924
▁christop	-3925
het	-3926
ror	-3927
vez	-3928
ales	-3929
ends	-3930
▁mug	-3931
▁bear	-3932
▁goes	-3933
▁page	-3934
▁blair	-3935
▁block	-3936
▁chann	-3937
▁lands	-3938
▁famous	-3939
▁madrid	-3940
▁appears	-3941
▁conclud	-3942
▁contest	-3943
▁involve	-3944
▁directly	-3945
▁language	-3946
▁christmas	-3947
▁establish	-3948
▁controversial	-3949
iki	-3950
▁ly	-3951
▁ut	-3952
▁jet	-3953
iment	-3954
ordon	-3955
rency	-3956
▁auto	-3957
▁gone	-3958
▁spir	-3959
▁happy	-3960
▁defeat	-3961
▁recomm	-3962
▁vessel	-3963
▁winner	-3964
▁freedom	-3965
▁largely	-3966
▁package	-3967
▁princip	-3968
▁willing	-3969
▁complain	-3970
▁declined	-3971
▁disaster	-3972
▁produced	-3973
▁developing	-3974
▁facilities	-3975
▁christopher	-3976
gun	-3977
abil	-3978
abul	-3979
▁alb	-3980
▁hair	-3981
▁pent	-3982
▁tech	-3983
▁alone	-3984
▁choice	-3985
▁ticket	-3986
▁alcohol	-3987
▁fighters	-3988
▁kidnapped	-3989
ams	-3990
▁48	-3991
apse	-3992
▁fra	-3993
▁rat	-3994
▁var	-3995
▁bott	-3996
▁dream	-3997
▁prior	-3998
▁trust	-3999
▁twice	-4000
▁meters	-4001
▁selling	-4002
▁soldier	-4003
▁assistant	-4004
▁hurricane	-4005
▁surrounding	-4006
gn	-4007
ery	-4008
sen	-4009
▁ic	-4010
▁gro	-4011
▁kos	-4012
▁grad	-4013
▁true	-4014
aching	-4015
▁aband	-4016
▁model	-4017
▁patro	-4018
▁sunni	-4019
▁tells	-4020
▁casual	-4021
▁double	-4022
▁ending	-4023
▁expand	-4024
▁headed	-4025
▁demands	-4026
▁distrib	-4027
▁overall	-4028
▁scandal	-4029
▁behavior	-4030
▁deadline	-4031
▁witnesses	-4032
aki	-4033
eing	-4034
▁ari	-4035
▁bat	-4036
▁gal	-4037
▁nar	-4038
ilipp	-4039
▁band	-4040
▁fine	-4041
▁mist	-4042
▁pick	-4043
▁burma	-4044
▁sudan	-4045
▁mugabe	-4046
▁victim	-4047
▁philipp	-4048
▁premier	-4049
▁species	-4050
▁activity	-4051
▁magazine	-4052
▁missiles	-4053
uj	-4054
olas	-4055
▁rang	-4056
▁downt	-4057
▁somal	-4058
▁canada	-4059
▁records	-4060
▁systems	-4061
▁talking	-4062
▁bombings	-4063
▁software	-4064
▁challenge	-4065
▁traditional	-4066
▁constitutional	-4067
ko	-4068
▁52	-4069
reme	-4070
wang	-4071
▁bey	-4072
▁bil	-4073
▁gon	-4074
▁ign	-4075
▁2009	-4076
▁dark	-4077
▁score	-4078
▁surge	-4079
▁tight	-4080
▁decade	-4081
▁doctor	-4082
▁actions	-4083
▁married	-4084
▁usually	-4085
▁politics	-4086
▁prepared	-4087
▁demanding	-4088
▁northeast	-4089
do	-4090
mon	-4091
ube	-4092
▁ba	-4093
fort	-4094
ront	-4095
▁bed	-4096
▁dial	-4097
▁door	-4098
▁mind	-4099
▁tank	-4100
▁ocean	-4101
▁purch	-4102
ologist	-4103
▁anonym	-4104
▁houses	-4105
▁demonst	-4106
▁extreme	-4107
▁imposed	-4108
▁pentagon	-4109
▁targeted	-4110
▁williams	-4111
▁christian	-4112
▁consumers	-4113
▁helicopter	-4114
▁51	-4115
▁lic	-4116
▁beck	-4117
▁fled	-4118
ictions	-4119
▁hussein	-4120
ano	-4121
bon	-4122
▁44	-4123
aska	-4124
▁spl	-4125
ender	-4126
▁knew	-4127
▁plot	-4128
▁frank	-4129
▁fraud	-4130
▁meant	-4131
▁rebel	-4132
▁stars	-4133
▁atomic	-4134
▁gordon	-4135
▁losses	-4136
▁weight	-4137
▁airline	-4138
▁collapse	-4139
▁proposal	-4140
▁francisco	-4141
▁recession	-4142
▁foreigners	-4143
oded	-4144
ogue	-4145
unch	-4146
▁194	-4147
asons	-4148
▁male	-4149
▁pope	-4150
▁coach	-4151
▁lived	-4152
▁owned	-4153
▁steve	-4154
▁places	-4155
▁sports	-4156
▁spring	-4157
▁surviv	-4158
▁temper	-4159
▁consult	-4160
▁deliver	-4161
▁sending	-4162
▁waiting	-4163
▁agencies	-4164
▁required	-4165
▁computers	-4166
▁controlled	-4167
▁convention	-4168
▁prosecutor	-4169
▁revolution	-4170
▁resignation	-4171
▁particularly	-4172
▁eld	-4173
▁eye	-4174
▁ult	-4175
ashes	-4176
isher	-4177
itarian	-4178
▁beyond	-4179
▁declar	-4180
▁losing	-4181
▁object	-4182
▁ronald	-4183
▁hostage	-4184
▁airlines	-4185
▁presence	-4186
▁determine	-4187
rer	-4188
tern	-4189
▁din	-4190
▁mir	-4191
ateral	-4192
▁cells	-4193
▁draft	-4194
▁heads	-4195
▁syria	-4196
▁crimes	-4197
▁koreas	-4198
▁maliki	-4199
▁relief	-4200
heastern	-4201
▁condole	-4202
▁pictures	-4203
▁traveling	-4204
▁governments	-4205
▁republicans	-4206
ezza	-4207
like	-4208
▁abu	-4209
▁hil	-4210
▁scr	-4211
▁sov	-4212
ately	-4213
wards	-4214
▁clot	-4215
▁thai	-4216
▁tony	-4217
▁walk	-4218
▁abuse	-4219
▁fully	-4220
▁occup	-4221
▁oppon	-4222
itation	-4223
▁deadly	-4224
▁resort	-4225
▁secure	-4226
▁served	-4227
▁settle	-4228
▁unless	-4229
▁content	-4230
▁receive	-4231
▁setting	-4232
▁festival	-4233
▁treasury	-4234
▁developed	-4235
▁condoleezza	-4236
apt	-4237
gas	-4238
une	-4239
▁34	-4240
abad	-4241
ique	-4242
▁eru	-4243
▁gay	-4244
▁nep	-4245
aming	-4246
astic	-4247
▁cong	-4248
▁trib	-4249
▁unit	-4250
▁style	-4251
▁gather	-4252
▁palace	-4253
▁portug	-4254
▁punish	-4255
▁actress	-4256
▁resolve	-4257
▁serving	-4258
▁various	-4259
▁visited	-4260
▁supplies	-4261
▁crackdown	-4262
▁implement	-4263
▁competition	-4264
▁politicians	-4265
sc	-4266
▁bom	-4267
▁fix	-4268
▁gra	-4269
▁rus	-4270
▁1999	-4271
▁acqu	-4272
▁monit	-4273
▁kosovo	-4274
▁sharif	-4275
▁singer	-4276
▁soviet	-4277
▁wealth	-4278
▁adviser	-4279
▁finding	-4280
▁approval	-4281
▁forecast	-4282
▁suffering	-4283
▁demonstrators	-4284
nic	-4285
▁55	-4286
aked	-4287
illa	-4288
imum	-4289
▁kyi	-4290
▁rub	-4291
gered	-4292
▁bern	-4293
▁corn	-4294
▁inqu	-4295
▁text	-4296
ifying	-4297
▁consp	-4298
▁honor	-4299
▁obser	-4300
▁happen	-4301
▁select	-4302
▁charles	-4303
▁quality	-4304
▁removed	-4305
▁dialogue	-4306
▁continues	-4307
▁religious	-4308
▁sometimes	-4309
▁determined	-4310
▁ku	-4311
iced	-4312
lets	-4313
rawn	-4314
▁hor	-4315
▁luc	-4316
▁teh	-4317
enger	-4318
▁boyc	-4319
▁purp	-4320
ension	-4321
▁exerc	-4322
▁teams	-4323
▁touch	-4324
▁whole	-4325
▁camera	-4326
▁finish	-4327
▁howard	-4328
▁widely	-4329
▁changed	-4330
▁tibetan	-4331
▁demanded	-4332
▁questioned	-4333
ye	-4334
ami	-4335
ein	-4336
enn	-4337
rog	-4338
▁der	-4339
▁cath	-4340
▁cuts	-4341
▁save	-4342
▁spar	-4343
▁unve	-4344
▁exist	-4345
▁kabul	-4346
▁users	-4347
▁affect	-4348
▁depart	-4349
▁facing	-4350
▁pervez	-4351
▁academy	-4352
▁beckham	-4353
▁express	-4354
▁lawyers	-4355
▁historic	-4356
▁property	-4357
▁apartment	-4358
▁influence	-4359
▁declaration	-4360
fur	-4361
▁43	-4362
ford	-4363
▁rum	-4364
▁ones	-4365
▁onto	-4366
▁prin	-4367
▁virt	-4368
▁floor	-4369
▁image	-4370
▁taxes	-4371
▁argent	-4372
▁bomber	-4373
▁becoming	-4374
▁original	-4375
dom	-4376
oph	-4377
▁46	-4378
acts	-4379
azir	-4380
▁lou	-4381
▁nad	-4382
▁pra	-4383
▁1980	-4384
▁1998	-4385
▁mine	-4386
▁pull	-4387
▁roll	-4388
▁stad	-4389
▁trop	-4390
▁alert	-4391
▁delay	-4392
▁diana	-4393
▁rapid	-4394
▁route	-4395
▁smoke	-4396
▁torch	-4397
▁troop	-4398
▁picked	-4399
▁planet	-4400
▁retail	-4401
▁ukrain	-4402
ferences	-4403
▁located	-4404
▁produce	-4405
▁accepted	-4406
▁character	-4407
▁businesses	-4408
▁organizations	-4409
▁gm	-4410
▁250	-4411
▁enj	-4412
▁mix	-4413
▁suu	-4414
etnam	-4415
▁chem	-4416
▁mahm	-4417
▁items	-4418
▁sense	-4419
▁highly	-4420
▁pounds	-4421
▁tehran	-4422
▁causing	-4423
▁finally	-4424
▁kurdish	-4425
▁believes	-4426
▁michigan	-4427
▁collapsed	-4428
▁estimates	-4429
▁providing	-4430
▁struggling	-4431
▁increasingly	-4432
▁demonstrations	-4433
win	-4434
aksin	-4435
anium	-4436
▁1990	-4437
▁cruc	-4438
▁hang	-4439
▁ring	-4440
enders	-4441
▁alive	-4442
▁firef	-4443
▁pregn	-4444
▁arabia	-4445
▁kenned	-4446
▁modern	-4447
▁saddam	-4448
▁housing	-4449
▁thaksin	-4450
▁attempts	-4451
▁division	-4452
▁tensions	-4453
▁explosives	-4454
▁withdrawal	-4455
▁discussions	-4456
▁transportation	-4457
▁53	-4458
hens	-4459
▁gov	-4460
▁nev	-4461
▁sev	-4462
ented	-4463
▁boat	-4464
▁troub	-4465
▁belong	-4466
▁slight	-4467
▁unlike	-4468
▁heavily	-4469
▁highway	-4470
▁keeping	-4471
▁require	-4472
▁telling	-4473
▁uranium	-4474
▁vietnam	-4475
▁approach	-4476
▁captured	-4477
▁standing	-4478
▁attempted	-4479
▁indicated	-4480
▁initially	-4481
▁neighboring	-4482
iri	-4483
uth	-4484
▁62	-4485
▁od	-4486
oses	-4487
▁cha	-4488
▁fal	-4489
▁orb	-4490
▁rac	-4491
itzer	-4492
▁cler	-4493
▁diss	-4494
▁pret	-4495
▁thin	-4496
ground	-4497
▁equip	-4498
▁joong	-4499
▁stone	-4500
▁stood	-4501
▁value	-4502
▁virus	-4503
▁asking	-4504
▁broken	-4505
▁device	-4506
▁fellow	-4507
▁channel	-4508
▁culture	-4509
▁kennedy	-4510
▁partner	-4511
▁penalty	-4512
▁tourism	-4513
▁entertain	-4514
▁southeast	-4515
▁assistance	-4516
nd	-4517
zai	-4518
▁hab	-4519
▁ally	-4520
▁ariz	-4521
▁meth	-4522
ounced	-4523
▁climb	-4524
▁colon	-4525
▁faced	-4526
▁holds	-4527
▁junta	-4528
▁liver	-4529
▁seems	-4530
▁spons	-4531
▁accomp	-4532
▁banned	-4533
▁flying	-4534
▁photos	-4535
▁scored	-4536
▁comfort	-4537
▁contain	-4538
▁picture	-4539
▁exploded	-4540
▁possibly	-4541
▁refugees	-4542
▁solution	-4543
▁appearance	-4544
▁kidnapping	-4545
▁profession	-4546
▁championship	-4547
ki	-4548
ici	-4549
▁ib	-4550
oral	-4551
▁bow	-4552
▁zoo	-4553
arant	-4554
verse	-4555
▁bure	-4556
▁mile	-4557
▁rape	-4558
isions	-4559
▁exact	-4560
▁probe	-4561
▁ships	-4562
▁tough	-4563
▁vegas	-4564
issions	-4565
▁injury	-4566
▁phones	-4567
▁thanks	-4568
▁arizona	-4569
▁clashes	-4570
▁conspir	-4571
▁reserve	-4572
▁stadium	-4573
▁warming	-4574
▁bringing	-4575
▁currency	-4576
▁governing	-4577
▁islamabad	-4578
▁foundation	-4579
▁threatening	-4580
▁correspondent	-4581
ob	-4582
cel	-4583
iny	-4584
ipp	-4585
▁sar	-4586
inger	-4587
▁bond	-4588
▁cuba	-4589
▁gain	-4590
▁goog	-4591
▁sadr	-4592
▁symb	-4593
▁carri	-4594
▁kenya	-4595
▁table	-4596
western	-4597
▁handed	-4598
▁tribal	-4599
▁greater	-4600
▁offices	-4601
▁partners	-4602
▁visiting	-4603
▁completed	-4604
▁personnel	-4605
▁disappoint	-4606
ova	-4607
owa	-4608
ugg	-4609
etts	-4610
▁arr	-4611
▁dna	-4612
▁obt	-4613
achus	-4614
adian	-4615
▁blow	-4616
▁chec	-4617
▁rall	-4618
▁sams	-4619
▁tons	-4620
▁unem	-4621
usalem	-4622
▁films	-4623
▁goals	-4624
▁goods	-4625
▁reven	-4626
▁scale	-4627
▁resour	-4628
▁entered	-4629
▁nicolas	-4630
▁opposed	-4631
achusetts	-4632
▁finished	-4633
▁projects	-4634
▁jerusalem	-4635
▁journalist	-4636
▁supporting	-4637
▁massachusetts	-4638
aro	-4639
aker	-4640
aren	-4641
idel	-4642
▁log	-4643
oning	-4644
▁gamb	-4645
▁hoped	-4646
▁looks	-4647
▁vowed	-4648
▁budget	-4649
▁ethnic	-4650
▁spears	-4651
▁delayed	-4652
▁allowing	-4653
▁unemploy	-4654
▁executives	-4655
▁nationwide	-4656
▁speculation	-4657
▁representatives	-4658
ols	-4659
oney	-4660
▁bea	-4661
▁ceo	-4662
▁pel	-4663
ulate	-4664
▁fash	-4665
▁gets	-4666
▁kang	-4667
▁mand	-4668
▁rein	-4669
▁warr	-4670
▁wire	-4671
▁yell	-4672
idency	-4673
ighter	-4674
▁angry	-4675
▁examp	-4676
▁nepal	-4677
▁extrem	-4678
▁income	-4679
▁martin	-4680
▁narrow	-4681
▁remote	-4682
▁ancient	-4683
▁enforce	-4684
▁equipment	-4685
▁connection	-4686
▁negotiator	-4687
▁commissioner	-4688
mo	-4689
ope	-4690
▁ji	-4691
▁gri	-4692
▁rid	-4693
▁sat	-4694
anted	-4695
▁dogs	-4696
▁hung	-4697
▁lose	-4698
▁defin	-4699
▁fatah	-4700
▁innoc	-4701
▁abduct	-4702
▁buying	-4703
▁driver	-4704
▁google	-4705
▁crashed	-4706
▁crucial	-4707
▁footage	-4708
▁tonight	-4709
▁downtown	-4710
▁reaction	-4711
▁evacuated	-4712
▁eventually	-4713
▁involvement	-4714
wa	-4715
ena	-4716
▁54	-4717
rison	-4718
▁cart	-4719
▁heat	-4720
▁jury	-4721
▁path	-4722
▁agric	-4723
▁books	-4724
chester	-4725
▁carbon	-4726
▁mahmoud	-4727
▁samsung	-4728
▁smaller	-4729
▁strengt	-4730
▁threats	-4731
▁treated	-4732
▁version	-4733
▁administ	-4734
▁intended	-4735
▁discovery	-4736
▁dismissed	-4737
za	-4738
hem	-4739
enty	-4740
icip	-4741
rees	-4742
rian	-4743
tery	-4744
▁cbs	-4745
ropri	-4746
▁pray	-4747
▁wake	-4748
mitted	-4749
▁categ	-4750
▁frequ	-4751
▁haven	-4752
▁oscar	-4753
▁closer	-4754
▁iraqis	-4755
▁karzai	-4756
▁weapon	-4757
▁fashion	-4758
▁guarant	-4759
▁reasons	-4760
▁strateg	-4761
▁studies	-4762
▁windows	-4763
▁facility	-4764
▁killings	-4765
▁lawmaker	-4766
▁relative	-4767
▁seriously	-4768
▁delegation	-4769
haps	-4770
rect	-4771
time	-4772
▁tun	-4773
▁cauc	-4774
▁dong	-4775
▁sand	-4776
▁thom	-4777
▁wolf	-4778
▁cents	-4779
▁maybe	-4780
▁rough	-4781
▁active	-4782
▁estate	-4783
▁movies	-4784
▁nevada	-4785
▁outbre	-4786
▁seeing	-4787
▁stress	-4788
▁heading	-4789
▁jackson	-4790
▁perhaps	-4791
▁agricult	-4792
▁canceled	-4793
▁resident	-4794
▁stations	-4795
▁surprise	-4796
▁condemned	-4797
▁ash	-4798
▁cia	-4799
▁jim	-4800
▁uns	-4801
aches	-4802
anged	-4803
▁dani	-4804
▁ford	-4805
▁iowa	-4806
▁isol	-4807
nament	-4808
▁dutch	-4809
▁nobel	-4810
▁noted	-4811
▁piece	-4812
▁subur	-4813
▁cruise	-4814
▁ensure	-4815
▁export	-4816
▁recall	-4817
▁tempor	-4818
▁unable	-4819
▁concert	-4820
▁perfect	-4821
▁simpson	-4822
▁walking	-4823
▁watched	-4824
▁audience	-4825
▁memorial	-4826
▁trillion	-4827
▁completely	-4828
▁tournament	-4829
▁humanitarian	-4830
ea	-4831
him	-4832
lig	-4833
ura	-4834
▁nbc	-4835
ivity	-4836
lands	-4837
osing	-4838
▁chos	-4839
icient	-4840
incial	-4841
▁album	-4842
▁comed	-4843
▁forum	-4844
▁initi	-4845
▁milan	-4846
▁abroad	-4847
▁advant	-4848
▁patrol	-4849
▁status	-4850
▁treaty	-4851
▁bailout	-4852
▁sheriff	-4853
▁speaker	-4854
▁challeng	-4855
▁standard	-4856
▁corporate	-4857
▁diplomats	-4858
▁insurance	-4859
▁magnitude	-4860
▁relatives	-4861
▁travelers	-4862
▁provincial	-4863
va	-4864
cle	-4865
lad	-4866
udd	-4867
▁41	-4868
▁64	-4869
▁rh	-4870
oard	-4871
ucks	-4872
▁atm	-4873
▁max	-4874
▁yes	-4875
anced	-4876
ategy	-4877
usted	-4878
▁mike	-4879
▁slam	-4880
▁subs	-4881
▁torn	-4882
▁upon	-4883
▁dubai	-4884
▁throw	-4885
▁alaska	-4886
▁applic	-4887
▁babies	-4888
▁owners	-4889
▁walked	-4890
▁weekly	-4891
▁display	-4892
▁exports	-4893
▁farmers	-4894
▁liberal	-4895
▁putting	-4896
▁extended	-4897
▁strategy	-4898
▁presidency	-4899
pe	-4900
oth	-4901
icks	-4902
▁pit	-4903
▁toy	-4904
ously	-4905
▁outr	-4906
▁wine	-4907
▁roads	-4908
▁aboard	-4909
▁berlin	-4910
▁decide	-4911
▁gunmen	-4912
▁perman	-4913
▁limited	-4914
▁proceed	-4915
▁turning	-4916
▁claiming	-4917
▁reporter	-4918
▁specific	-4919
▁watching	-4920
▁photograp	-4921
▁casualties	-4922
▁manchester	-4923
▁officially	-4924
▁organizers	-4925
▁photograph	-4926
ita	-4927
rys	-4928
rich	-4929
sequ	-4930
uals	-4931
▁dod	-4932
▁syd	-4933
▁wen	-4934
ersey	-4935
▁aide	-4936
▁lady	-4937
▁stim	-4938
▁zeal	-4939
▁cited	-4940
▁stake	-4941
▁cheney	-4942
▁guards	-4943
▁sudden	-4944
▁clearly	-4945
▁covered	-4946
▁kingdom	-4947
▁ranking	-4948
▁champion	-4949
▁invasion	-4950
▁strongly	-4951
▁appointed	-4952
▁offensive	-4953
ny	-4954
aze	-4955
wal	-4956
▁ec	-4957
fire	-4958
ills	-4959
onom	-4960
pool	-4961
▁ker	-4962
▁lob	-4963
ivals	-4964
ports	-4965
▁dram	-4966
▁flow	-4967
▁mont	-4968
▁skin	-4969
▁toys	-4970
▁brand	-4971
▁diego	-4972
▁louis	-4973
▁niger	-4974
▁quite	-4975
▁sound	-4976
▁columb	-4977
▁spirit	-4978
▁sydney	-4979
▁auction	-4980
▁muslims	-4981
▁smoking	-4982
▁princess	-4983
▁recovery	-4984
▁anonymity	-4985
▁standards	-4986
▁survivors	-4987
▁venezuela	-4988
▁newspapers	-4989
▁unemployment	-4990
iano	-4991
▁eve	-4992
iring	-4993
▁type	-4994
▁doubt	-4995
▁maker	-4996
▁nadal	-4997
▁pound	-4998
▁sport	-4999
▁worse	-5000
▁answer	-5001
▁bought	-5002
▁experi	-5003
▁hilton	-5004
▁sister	-5005
▁wonder	-5006
▁founder	-5007
▁benefits	-5008
▁confront	-5009
▁mohammed	-5010
▁revealed	-5011
▁detention	-5012
▁commitment	-5013
▁entertainment	-5014
▁65	-5015
abor	-5016
oked	-5017
▁bob	-5018
▁spr	-5019
pread	-5020
▁chel	-5021
▁easy	-5022
▁eyes	-5023
▁feed	-5024
▁harm	-5025
▁suit	-5026
▁tear	-5027
▁visa	-5028
▁agent	-5029
▁wides	-5030
▁advert	-5031
▁awards	-5032
▁buried	-5033
▁formal	-5034
▁humans	-5035
▁tested	-5036
▁example	-5037
▁johnson	-5038
▁raising	-5039
▁tomorrow	-5040
▁electoral	-5041
▁tradition	-5042
▁electronic	-5043
▁widespread	-5044
▁destruction	-5045
da	-5046
awa	-5047
gar	-5048
ikh	-5049
isc	-5050
esty	-5051
iang	-5052
▁cow	-5053
▁sem	-5054
▁carl	-5055
▁hamp	-5056
▁swim	-5057
▁tape	-5058
▁wars	-5059
▁catch	-5060
▁deton	-5061
▁monks	-5062
▁relay	-5063
▁rooms	-5064
▁santa	-5065
▁spend	-5066
▁altern	-5067
▁atmosp	-5068
▁devast	-5069
▁except	-5070
▁judges	-5071
▁powers	-5072
▁profit	-5073
▁soccer	-5074
▁cutting	-5075
▁landing	-5076
▁seconds	-5077
▁insisted	-5078
▁internal	-5079
▁returning	-5080
oke	-5081
onh	-5082
uce	-5083
ume	-5084
zen	-5085
▁39	-5086
▁iv	-5087
▁mu	-5088
book	-5089
inal	-5090
olit	-5091
unte	-5092
well	-5093
▁kat	-5094
▁lie	-5095
▁unp	-5096
inces	-5097
▁samp	-5098
▁wave	-5099
▁wins	-5100
atures	-5101
▁agend	-5102
▁delta	-5103
▁grave	-5104
▁knows	-5105
▁ordin	-5106
▁pilot	-5107
▁recru	-5108
▁renew	-5109
essions	-5110
▁assess	-5111
▁landed	-5112
▁lowest	-5113
▁prompt	-5114
▁resist	-5115
▁simply	-5116
▁trouble	-5117
▁volunte	-5118
▁catholic	-5119
▁favorite	-5120
▁physical	-5121
▁passenger	-5122
▁provinces	-5123
▁resources	-5124
▁continuing	-5125
▁transition	-5126
▁electricity	-5127
▁acknowledged	-5128
▁assassination	-5129
ho	-5130
bac	-5131
▁56	-5132
▁km	-5133
▁lt	-5134
▁dal	-5135
▁fan	-5136
▁suc	-5137
uster	-5138
works	-5139
▁guns	-5140
▁none	-5141
▁rome	-5142
▁stal	-5143
rysler	-5144
▁begun	-5145
▁enjoy	-5146
▁equal	-5147
▁faith	-5148
▁leads	-5149
▁loans	-5150
▁towns	-5151
▁daniel	-5152
▁jersey	-5153
▁jumped	-5154
▁urging	-5155
▁apology	-5156
▁reflect	-5157
▁trapped	-5158
▁ukraine	-5159
▁unclear	-5160
▁creating	-5161
▁drinking	-5162
▁malaysia	-5163
▁medicine	-5164
▁household	-5165
▁organized	-5166
▁triggered	-5167
▁communications	-5168
bar	-5169
rey	-5170
sea	-5171
set	-5172
uers	-5173
▁195	-5174
elled	-5175
ollah	-5176
osure	-5177
ville	-5178
▁2010	-5179
▁appl	-5180
▁budd	-5181
▁cool	-5182
▁copy	-5183
▁diam	-5184
▁hero	-5185
▁runs	-5186
▁task	-5187
▁tort	-5188
▁birds	-5189
▁overn	-5190
▁agenda	-5191
▁choose	-5192
▁marked	-5193
▁planes	-5194
▁achieve	-5195
▁aggress	-5196
▁chelsea	-5197
▁learned	-5198
▁promote	-5199
▁targets	-5200
▁attended	-5201
▁cultural	-5202
▁negative	-5203
▁upcoming	-5204
▁certainly	-5205
▁colombian	-5206
▁discussed	-5207
▁liverpool	-5208
▁overnight	-5209
▁percentage	-5210
▁investigate	-5211
▁restrictions	-5212
aug	-5213
unk	-5214
▁ia	-5215
byon	-5216
fare	-5217
feld	-5218
▁ble	-5219
▁era	-5220
▁jes	-5221
ental	-5222
ipped	-5223
▁calm	-5224
▁outp	-5225
▁pref	-5226
▁unus	-5227
▁apart	-5228
▁basis	-5229
▁enemy	-5230
▁overw	-5231
▁youth	-5232
▁assets	-5233
▁burned	-5234
▁examin	-5235
▁proced	-5236
▁atlanta	-5237
▁centers	-5238
▁decline	-5239
▁indiana	-5240
▁install	-5241
▁pushing	-5242
▁chemical	-5243
▁offering	-5244
▁yongbyon	-5245
▁advantage	-5246
▁extremely	-5247
▁interests	-5248
▁conspiracy	-5249
▁differences	-5250
ju	-5251
lor	-5252
uri	-5253
▁pc	-5254
otic	-5255
▁adj	-5256
▁ath	-5257
▁bon	-5258
▁ric	-5259
▁spy	-5260
▁tan	-5261
stein	-5262
▁coff	-5263
▁debt	-5264
▁dict	-5265
▁pair	-5266
▁plus	-5267
action	-5268
ivered	-5269
▁corps	-5270
▁divor	-5271
▁exile	-5272
▁fewer	-5273
▁fires	-5274
▁gains	-5275
▁acting	-5276
▁allows	-5277
▁gained	-5278
▁hoping	-5279
▁nature	-5280
▁potter	-5281
▁thomas	-5282
▁valley	-5283
▁diamond	-5284
▁mention	-5285
▁sparked	-5286
▁tourist	-5287
▁breaking	-5288
▁deployed	-5289
▁rescuers	-5290
▁standoff	-5291
▁wounding	-5292
▁confident	-5293
▁preparing	-5294
▁referring	-5295
▁reporting	-5296
▁successful	-5297
▁legislation	-5298
▁regulations	-5299
gen	-5300
kok	-5301
rig	-5302
▁58	-5303
▁mr	-5304
erer	-5305
fall	-5306
rend	-5307
▁sac	-5308
▁tab	-5309
▁dump	-5310
▁khan	-5311
▁matt	-5312
▁prol	-5313
▁rebu	-5314
▁shan	-5315
▁sick	-5316
▁tall	-5317
▁aides	-5318
▁prost	-5319
▁rural	-5320
▁stret	-5321
▁disarm	-5322
▁driven	-5323
▁filled	-5324
▁lifted	-5325
▁rivals	-5326
▁struct	-5327
▁welcom	-5328
▁bangkok	-5329
▁chances	-5330
▁islands	-5331
▁lawsuit	-5332
▁reduced	-5333
▁strikes	-5334
▁succeed	-5335
▁maryland	-5336
▁roadside	-5337
▁substant	-5338
▁unveiled	-5339
▁concluded	-5340
▁hospitals	-5341
▁generation	-5342
▁questioning	-5343
zb	-5344
mun	-5345
gage	-5346
ading	-5347
attle	-5348
▁ghaz	-5349
▁jeff	-5350
▁pump	-5351
▁vlad	-5352
iously	-5353
▁boats	-5354
▁gives	-5355
▁reloc	-5356
imately	-5357
▁bureau	-5358
▁expert	-5359
▁frozen	-5360
▁golden	-5361
▁effects	-5362
▁federer	-5363
▁follows	-5364
▁healthy	-5365
▁herself	-5366
▁abdullah	-5367
▁entering	-5368
▁reaching	-5369
▁slightly	-5370
▁teachers	-5371
▁delivered	-5372
▁permanent	-5373
▁producing	-5374
war	-5375
▁61	-5376
▁66	-5377
ctic	-5378
etic	-5379
▁bah	-5380
▁cry	-5381
▁fab	-5382
▁hug	-5383
▁jul	-5384
▁raf	-5385
▁sam	-5386
▁via	-5387
limin	-5388
oline	-5389
▁bell	-5390
▁boss	-5391
▁ease	-5392
▁fier	-5393
▁gulf	-5394
▁hezb	-5395
▁hole	-5396
▁tsun	-5397
▁adopt	-5398
▁basic	-5399
▁bench	-5400
▁dress	-5401
▁fayed	-5402
▁hwang	-5403
▁optim	-5404
▁petro	-5405
▁editor	-5406
▁enrich	-5407
▁plants	-5408
▁presum	-5409
▁proper	-5410
▁ranked	-5411
▁simple	-5412
▁stores	-5413
▁ability	-5414
▁advance	-5415
▁closing	-5416
▁complic	-5417
▁connect	-5418
▁digital	-5419
▁edwards	-5420
▁falling	-5421
▁focused	-5422
▁invited	-5423
▁zealand	-5424
▁homeland	-5425
▁location	-5426
▁prelimin	-5427
▁suggests	-5428
▁bilateral	-5429
▁inflation	-5430
▁opponents	-5431
▁supported	-5432
▁inspectors	-5433
▁statements	-5434
▁controversy	-5435
fl	-5436
amm	-5437
iat	-5438
ipe	-5439
kel	-5440
▁eh	-5441
▁ru	-5442
arta	-5443
iami	-5444
life	-5445
▁wil	-5446
▁amaz	-5447
▁boys	-5448
▁edge	-5449
▁gonz	-5450
▁leng	-5451
▁mour	-5452
▁swed	-5453
▁inaug	-5454
▁miami	-5455
▁palin	-5456
▁proud	-5457
▁prove	-5458
▁solar	-5459
▁spect	-5460
▁darfur	-5461
▁detain	-5462
▁remove	-5463
▁banking	-5464
▁meaning	-5465
▁rockets	-5466
▁statist	-5467
▁tsunami	-5468
▁canadian	-5469
▁chrysler	-5470
▁practice	-5471
▁hezbollah	-5472
▁materials	-5473
▁presented	-5474
▁unification	-5475
▁conservation	-5476
era	-5477
▁49	-5478
▁59	-5479
▁du	-5480
iest	-5481
part	-5482
rell	-5483
▁guy	-5484
▁wis	-5485
▁aids	-5486
▁bost	-5487
▁emot	-5488
▁flew	-5489
▁grab	-5490
▁manh	-5491
▁note	-5492
▁sail	-5493
▁sean	-5494
▁shir	-5495
▁sust	-5496
▁volc	-5497
▁exhib	-5498
▁fatal	-5499
▁learn	-5500
▁broadc	-5501
▁campus	-5502
▁couldn	-5503
▁fisher	-5504
▁formed	-5505
▁fought	-5506
▁method	-5507
▁trains	-5508
▁yellow	-5509
▁convers	-5510
▁journey	-5511
▁radical	-5512
▁overwhel	-5513
▁strength	-5514
▁southwest	-5515
▁administrat	-5516
▁preliminary	-5517
▁firefighters	-5518
▁hospitalized	-5519
kin	-5520
ram	-5521
uts	-5522
▁95	-5523
agan	-5524
bery	-5525
rick	-5526
stri	-5527
▁jon	-5528
▁sor	-5529
▁wid	-5530
abeth	-5531
onhap	-5532
▁argu	-5533
▁holy	-5534
▁lake	-5535
▁lind	-5536
▁quit	-5537
▁scot	-5538
▁tiny	-5539
▁yout	-5540
akarta	-5541
▁split	-5542
▁threw	-5543
▁truth	-5544
▁bottom	-5545
▁fallen	-5546
▁intens	-5547
▁interp	-5548
▁margin	-5549
▁pretty	-5550
▁pushed	-5551
▁yonhap	-5552
ropriate	-5553
▁arrival	-5554
▁benazir	-5555
▁coordin	-5556
▁couples	-5557
▁dismant	-5558
▁options	-5559
▁reading	-5560
▁refugee	-5561
▁retired	-5562
▁staying	-5563
▁testing	-5564
▁welcome	-5565
▁colorado	-5566
▁exercise	-5567
▁findings	-5568
▁flooding	-5569
▁prompted	-5570
▁warnings	-5571
▁emissions	-5572
▁neighbors	-5573
pa	-5574
awi	-5575
isf	-5576
▁fo	-5577
▁pu	-5578
oria	-5579
▁aer	-5580
▁hat	-5581
▁mph	-5582
▁ped	-5583
▁lama	-5584
▁mars	-5585
▁sony	-5586
▁absol	-5587
▁breat	-5588
▁dalai	-5589
▁lying	-5590
▁macau	-5591
▁older	-5592
▁gunman	-5593
▁inches	-5594
▁larger	-5595
▁offers	-5596
▁remark	-5597
▁shrine	-5598
entially	-5599
▁boycott	-5600
▁promise	-5601
▁recover	-5602
▁youtube	-5603
▁delivery	-5604
▁outbreak	-5605
▁resigned	-5606
▁shopping	-5607
▁disappear	-5608
▁predicted	-5609
▁requested	-5610
▁repeatedly	-5611
▁manufacture	-5612
bur	-5613
ded	-5614
eed	-5615
thr	-5616
▁ta	-5617
outs	-5618
pect	-5619
zing	-5620
▁hub	-5621
ailed	-5622
ledge	-5623
leine	-5624
ptive	-5625
undai	-5626
▁drew	-5627
▁fate	-5628
▁pace	-5629
▁plat	-5630
▁scen	-5631
▁tack	-5632
▁vari	-5633
▁blame	-5634
▁drawn	-5635
▁ideas	-5636
▁overt	-5637
▁upper	-5638
▁afford	-5639
▁sector	-5640
▁hyundai	-5641
▁neither	-5642
▁profile	-5643
▁surface	-5644
▁towards	-5645
▁gasoline	-5646
▁northwest	-5647
▁girlfriend	-5648
▁restaurant	-5649
▁immigration	-5650
▁temperatures	-5651
30	-5652
hab	-5653
rec	-5654
▁az	-5655
▁ox	-5656
emic	-5657
ouri	-5658
▁abc	-5659
▁gap	-5660
▁mut	-5661
▁tay	-5662
rated	-5663
water	-5664
▁1994	-5665
▁exit	-5666
▁iaea	-5667
atican	-5668
▁cease	-5669
▁glass	-5670
▁globe	-5671
▁steel	-5672
▁strip	-5673
istered	-5674
▁boston	-5675
▁cleric	-5676
▁detect	-5677
▁jailed	-5678
▁landsl	-5679
▁seemed	-5680
▁stimul	-5681
▁vladim	-5682
▁edition	-5683
▁engaged	-5684
▁erupted	-5685
▁escaped	-5686
▁expects	-5687
▁funding	-5688
▁reality	-5689
▁vatican	-5690
▁writing	-5691
▁absolute	-5692
▁accompan	-5693
▁changing	-5694
▁searching	-5695
▁stability	-5696
▁atmosphere	-5697
▁individuals	-5698
▁professional	-5699
▁congressional	-5700
kk	-5701
rae	-5702
▁ak	-5703
omes	-5704
▁bac	-5705
▁ess	-5706
▁gib	-5707
▁mun	-5708
▁sin	-5709
illed	-5710
iters	-5711
▁cycl	-5712
▁drag	-5713
▁gard	-5714
▁liqu	-5715
▁neck	-5716
▁sets	-5717
▁drove	-5718
▁label	-5719
▁osama	-5720
▁sarah	-5721
▁scott	-5722
▁shock	-5723
▁shout	-5724
▁degree	-5725
▁disney	-5726
▁earned	-5727
▁length	-5728
▁orders	-5729
▁airstri	-5730
▁captain	-5731
▁compens	-5732
▁drivers	-5733
▁patient	-5734
▁regions	-5735
▁younger	-5736
▁friendly	-5737
▁messages	-5738
▁survived	-5739
▁argentina	-5740
▁knowledge	-5741
▁recovered	-5742
▁targeting	-5743
▁enforcement	-5744
▁uh	-5745
enth	-5746
hist	-5747
▁eat	-5748
▁fox	-5749
▁nav	-5750
▁rig	-5751
▁rio	-5752
acity	-5753
shire	-5754
▁chap	-5755
▁grew	-5756
▁norm	-5757
▁stro	-5758
▁tied	-5759
▁tree	-5760
▁vast	-5761
▁vent	-5762
▁wait	-5763
minent	-5764
▁bound	-5765
▁jesus	-5766
▁adults	-5767
▁bigger	-5768
▁circum	-5769
▁desert	-5770
▁flames	-5771
▁lights	-5772
▁closely	-5773
▁failing	-5774
▁subject	-5775
▁telecom	-5776
▁atlantic	-5777
▁formally	-5778
▁identify	-5779
▁producer	-5780
▁publicly	-5781
▁scotland	-5782
▁struggle	-5783
▁madeleine	-5784
▁observers	-5785
▁responded	-5786
▁astronauts	-5787
▁restaurants	-5788
▁communication	-5789
ato	-5790
ini	-5791
oma	-5792
see	-5793
▁68	-5794
▁120	-5795
▁191	-5796
▁kaz	-5797
ansas	-5798
erved	-5799
osite	-5800
▁aren	-5801
▁ehud	-5802
▁exam	-5803
▁reun	-5804
▁thro	-5805
▁escal	-5806
▁firms	-5807
▁manip	-5808
▁paint	-5809
▁sixth	-5810
mission	-5811
▁athlet	-5812
▁corner	-5813
▁master	-5814
▁option	-5815
▁papers	-5816
▁termin	-5817
▁coastal	-5818
▁managed	-5819
▁pirates	-5820
▁reforms	-5821
▁stepped	-5822
▁wedding	-5823
▁estimate	-5824
▁innocent	-5825
▁vladimir	-5826
▁helicopters	-5827
▁broadcasting	-5828
▁expectations	-5829
bod	-5830
jad	-5831
nis	-5832
anch	-5833
onic	-5834
ques	-5835
rete	-5836
▁cos	-5837
▁lux	-5838
acing	-5839
ordan	-5840
▁airb	-5841
▁brut	-5842
▁chun	-5843
▁eliz	-5844
▁emph	-5845
▁ends	-5846
▁merc	-5847
▁arsen	-5848
▁delhi	-5849
▁limit	-5850
▁marks	-5851
▁newly	-5852
▁uncon	-5853
▁views	-5854
▁waste	-5855
▁barcel	-5856
▁convoy	-5857
▁escape	-5858
▁multip	-5859
▁paying	-5860
▁runner	-5861
ologists	-5862
▁matches	-5863
▁teacher	-5864
▁accounts	-5865
▁diplomat	-5866
▁pregnant	-5867
▁positions	-5868
▁reduction	-5869
▁attempting	-5870
▁indonesian	-5871
▁introduced	-5872
▁counterpart	-5873
▁disarmament	-5874
▁established	-5875
▁philippines	-5876
gs	-5877
aka	-5878
ias	-5879
uct	-5880
cher	-5881
look	-5882
▁130	-5883
agues	-5884
deleg	-5885
erous	-5886
raeus	-5887
▁beef	-5888
▁duty	-5889
▁warm	-5890
atever	-5891
▁abdul	-5892
▁debut	-5893
▁habit	-5894
▁squad	-5895
▁unity	-5896
▁boeing	-5897
▁counts	-5898
▁jordan	-5899
▁memory	-5900
▁serbia	-5901
▁shared	-5902
▁string	-5903
▁blocked	-5904
▁divided	-5905
▁feeling	-5906
▁license	-5907
▁birthday	-5908
▁circumst	-5909
▁contests	-5910
▁islamist	-5911
▁petraeus	-5912
▁recorded	-5913
▁whatever	-5914
▁alexander	-5915
▁barcelona	-5916
▁deployment	-5917
▁superdeleg	-5918
▁surrounded	-5919
ek	-5920
▁cz	-5921
▁gi	-5922
▁ug	-5923
form	-5924
ghai	-5925
orse	-5926
▁gop	-5927
lling	-5928
▁barb	-5929
▁halt	-5930
▁lift	-5931
▁migr	-5932
▁ride	-5933
▁sort	-5934
▁verd	-5935
rating	-5936
▁accus	-5937
▁anger	-5938
▁anton	-5939
▁kevin	-5940
vereign	-5941
▁beaten	-5942
▁bright	-5943
▁firing	-5944
▁adopted	-5945
▁cleared	-5946
▁illness	-5947
▁stories	-5948
▁shanghai	-5949
▁stronger	-5950
▁troubled	-5951
▁villages	-5952
▁welcomed	-5953
▁direction	-5954
▁elizabeth	-5955
▁gathering	-5956
▁illegally	-5957
▁peacekeep	-5958
▁sovereign	-5959
▁suspicion	-5960
▁challenges	-5961
dc	-5962
gl	-5963
vi	-5964
oen	-5965
rad	-5966
▁ay	-5967
akers	-5968
inals	-5969
night	-5970
▁gore	-5971
▁summ	-5972
▁veto	-5973
inejad	-5974
▁civic	-5975
▁hawai	-5976
▁moves	-5977
▁plung	-5978
▁shift	-5979
▁sight	-5980
▁trees	-5981
▁crowds	-5982
▁ghazni	-5983
▁mainly	-5984
▁metrop	-5985
▁superv	-5986
▁anticip	-5987
▁beating	-5988
▁deliber	-5989
▁rallies	-5990
▁infected	-5991
▁maintain	-5992
▁traveled	-5993
▁wildlife	-5994
▁hampshire	-5995
▁transform	-5996
▁federation	-5997
▁registered	-5998
▁venezuelan	-5999
▁ahmadinejad	-6000
▁participate	-6001
▁representative	-6002
ola	-6003
▁69	-6004
▁obv	-6005
▁pad	-6006
acked	-6007
attan	-6008
▁2012	-6009
▁acts	-6010
▁belg	-6011
▁chen	-6012
▁crop	-6013
▁farc	-6014
▁link	-6015
▁ramp	-6016
▁basra	-6017
▁kerry	-6018
▁urban	-6019
▁wheel	-6020
▁begins	-6021
▁bloody	-6022
▁causes	-6023
▁reagan	-6024
▁reject	-6025
▁unions	-6026
▁videos	-6027
▁burning	-6028
▁forcing	-6029
▁hopeful	-6030
▁jakarta	-6031
▁sharply	-6032
▁airports	-6033
▁watchdog	-6034
▁engineers	-6035
▁primaries	-6036
▁sensitive	-6037
▁colleagues	-6038
▁difference	-6039
▁enrichment	-6040
▁monitoring	-6041
▁punishment	-6042
▁revolutionary	-6043
daq	-6044
ean	-6045
pan	-6046
vey	-6047
▁63	-6048
chen	-6049
ovic	-6050
▁cra	-6051
▁gor	-6052
▁jam	-6053
▁kib	-6054
▁ages	-6055
▁imag	-6056
▁knee	-6057
▁vacc	-6058
▁gradu	-6059
▁hills	-6060
▁lohan	-6061
▁metal	-6062
▁comedy	-6063
▁deeply	-6064
▁eating	-6065
▁elimin	-6066
▁floods	-6067
▁morgan	-6068
▁pledge	-6069
▁prepar	-6070
▁stance	-6071
▁arsenal	-6072
▁dealing	-6073
▁letters	-6074
▁patrick	-6075
▁routine	-6076
▁secular	-6077
▁stalled	-6078
▁abducted	-6079
▁capacity	-6080
▁compound	-6081
▁stressed	-6082
▁thinking	-6083
▁unlikely	-6084
▁vacation	-6085
▁economist	-6086
▁effective	-6087
▁expensive	-6088
▁highlight	-6089
▁manhattan	-6090
▁regarding	-6091
▁scientist	-6092
▁televised	-6093
▁violation	-6094
▁disappointed	-6095
▁understanding	-6096
dy	-6097
chi	-6098
jev	-6099
umi	-6100
▁dv	-6101
aret	-6102
icit	-6103
ilit	-6104
wart	-6105
▁cig	-6106
▁pin	-6107
▁sli	-6108
▁slo	-6109
▁1996	-6110
▁dick	-6111
▁foss	-6112
▁hunt	-6113
▁lung	-6114
▁mate	-6115
▁nick	-6116
▁peru	-6117
▁wear	-6118
olitan	-6119
▁bened	-6120
▁blago	-6121
▁camps	-6122
▁chile	-6123
▁grown	-6124
▁liter	-6125
▁loved	-6126
▁swept	-6127
▁chosen	-6128
▁cooper	-6129
▁packed	-6130
▁stands	-6131
▁subsid	-6132
▁worker	-6133
▁bombers	-6134
▁capable	-6135
▁emerged	-6136
▁roughly	-6137
▁accusing	-6138
▁briefing	-6139
▁caucuses	-6140
▁features	-6141
▁numerous	-6142
▁portugal	-6143
▁everybody	-6144
▁intention	-6145
▁nominated	-6146
▁apologized	-6147
▁individual	-6148
▁alternative	-6149
▁demonstration	-6150
▁manufacturing	-6151
zo	-6152
aid	-6153
ero	-6154
iop	-6155
ios	-6156
san	-6157
uls	-6158
▁ye	-6159
olis	-6160
pass	-6161
▁moh	-6162
▁pkk	-6163
▁sha	-6164
▁unn	-6165
itely	-6166
owitz	-6167
point	-6168
▁bull	-6169
▁toug	-6170
ocking	-6171
▁extin	-6172
▁novel	-6173
▁roman	-6174
▁schol	-6175
illance	-6176
▁arrive	-6177
▁bitter	-6178
▁faster	-6179
▁hotels	-6180
▁jewish	-6181
▁leaves	-6182
▁michel	-6183
▁scores	-6184
▁conclus	-6185
▁earning	-6186
▁factory	-6187
▁funeral	-6188
▁imports	-6189
▁intense	-6190
▁mississ	-6191
▁plastic	-6192
▁restore	-6193
▁ronaldo	-6194
▁worried	-6195
▁buddhist	-6196
▁columbia	-6197
▁directed	-6198
▁midnight	-6199
▁mortgage	-6200
▁obtained	-6201
▁remember	-6202
▁tropical	-6203
▁brazilian	-6204
▁detonated	-6205
▁initiative	-6206
▁scientific	-6207
▁engineering	-6208
▁southeastern	-6209
▁surveillance	-6210
▁circumstances	-6211
asc	-6212
oms	-6213
pet	-6214
▁ka	-6215
aine	-6216
airo	-6217
bing	-6218
ippi	-6219
▁alt	-6220
▁hid	-6221
▁ire	-6222
▁jol	-6223
▁woo	-6224
board	-6225
icial	-6226
illas	-6227
oking	-6228
onium	-6229
▁brig	-6230
▁sole	-6231
▁uses	-6232
asters	-6233
illing	-6234
▁barri	-6235
▁bills	-6236
▁elder	-6237
▁entry	-6238
▁henry	-6239
▁mouth	-6240
▁archae	-6241
▁guests	-6242
▁hawaii	-6243
▁kibaki	-6244
▁talked	-6245
▁machine	-6246
▁maximum	-6247
▁militia	-6248
▁rescued	-6249
▁sitting	-6250
▁whaling	-6251
▁greatest	-6252
▁reconcil	-6253
▁supposed	-6254
▁decisions	-6255
▁dominated	-6256
▁successor	-6257
▁mississippi	-6258
▁southwestern	-6259
aph	-6260
arr	-6261
dro	-6262
ori	-6263
▁si	-6264
anke	-6265
ipel	-6266
▁ank	-6267
▁dur	-6268
▁gmt	-6269
▁nik	-6270
usive	-6271
▁1995	-6272
▁aged	-6273
▁epic	-6274
▁harv	-6275
▁hasn	-6276
▁hide	-6277
▁impe	-6278
▁stun	-6279
▁unif	-6280
jevich	-6281
▁aware	-6282
▁false	-6283
▁quiet	-6284
▁toxic	-6285
through	-6286
▁bullet	-6287
▁cambod	-6288
▁coffee	-6289
▁debris	-6290
▁inquir	-6291
▁mccann	-6292
▁promot	-6293
▁specif	-6294
▁backing	-6295
▁charity	-6296
▁cyclone	-6297
▁degrees	-6298
▁devices	-6299
▁founded	-6300
▁musical	-6301
▁rapidly	-6302
▁theater	-6303
▁virtual	-6304
▁bankrupt	-6305
▁commerce	-6306
▁identity	-6307
▁replaced	-6308
▁discussion	-6309
▁originally	-6310
▁blagojevich	-6311
▁breakthrough	-6312
▁investigations	-6313
▁superdelegates	-6314
alf	-6315
bow	-6316
▁85	-6317
▁ms	-6318
▁na	-6319
adel	-6320
▁fta	-6321
▁hiv	-6322
▁lew	-6323
▁pap	-6324
▁pav	-6325
antly	-6326
eared	-6327
ighth	-6328
iliar	-6329
imony	-6330
▁1950	-6331
▁chad	-6332
▁elev	-6333
▁guer	-6334
▁sons	-6335
▁tend	-6336
▁chong	-6337
▁disag	-6338
▁drama	-6339
▁forec	-6340
▁greet	-6341
▁multi	-6342
▁oblig	-6343
▁persu	-6344
▁polar	-6345
▁shops	-6346
▁swiss	-6347
attered	-6348
▁castro	-6349
▁chiefs	-6350
▁conver	-6351
▁feared	-6352
▁fields	-6353
▁greece	-6354
▁nasdaq	-6355
▁wouldn	-6356
▁citizen	-6357
▁endorse	-6358
▁exactly	-6359
▁mohamed	-6360
▁section	-6361
▁striker	-6362
▁warrant	-6363
▁battling	-6364
▁benedict	-6365
▁brothers	-6366
▁concrete	-6367
▁egyptian	-6368
▁multiple	-6369
▁encourage	-6370
▁technical	-6371
▁presidents	-6372
▁agriculture	-6373
▁participants	-6374
cts	-6375
inn	-6376
isa	-6377
▁eb	-6378
anes	-6379
wise	-6380
▁lit	-6381
▁sri	-6382
▁yem	-6383
adesh	-6384
bacco	-6385
essed	-6386
known	-6387
maker	-6388
verty	-6389
▁beer	-6390
▁boom	-6391
▁crus	-6392
▁kick	-6393
▁lank	-6394
▁typh	-6395
▁yous	-6396
tering	-6397
▁adult	-6398
▁amend	-6399
▁apply	-6400
▁conce	-6401
▁loyal	-6402
▁phoen	-6403
▁shore	-6404
▁shots	-6405
▁vital	-6406
▁dinner	-6407
▁excess	-6408
▁makers	-6409
▁native	-6410
▁steven	-6411
▁cameras	-6412
▁concent	-6413
▁consequ	-6414
▁explain	-6415
▁mexican	-6416
▁poverty	-6417
▁referen	-6418
▁survive	-6419
▁tobacco	-6420
▁unknown	-6421
▁mainland	-6422
▁moderate	-6423
▁normally	-6424
▁mountains	-6425
▁recommend	-6426
▁collection	-6427
▁complained	-6428
▁depression	-6429
▁campaigning	-6430
▁underground	-6431
▁metropolitan	-6432
esc	-6433
ius	-6434
osi	-6435
▁dy	-6436
▁zo	-6437
irty	-6438
izes	-6439
▁awa	-6440
▁coc	-6441
▁seg	-6442
▁vit	-6443
▁wre	-6444
erves	-6445
▁1991	-6446
▁anal	-6447
▁brad	-6448
▁glac	-6449
▁outs	-6450
▁porn	-6451
▁stan	-6452
▁sung	-6453
ancing	-6454
ortion	-6455
ration	-6456
▁antar	-6457
▁bangl	-6458
▁drink	-6459
▁error	-6460
▁links	-6461
▁orche	-6462
▁photo	-6463
▁yemen	-6464
▁airbus	-6465
▁argued	-6466
▁assert	-6467
▁emphas	-6468
▁height	-6469
▁integr	-6470
▁joseph	-6471
▁prohib	-6472
▁somali	-6473
▁symbol	-6474
▁window	-6475
▁borders	-6476
▁correct	-6477
▁fortune	-6478
▁phoenix	-6479
▁sharing	-6480
▁unusual	-6481
▁category	-6482
▁schedule	-6483
▁stimulus	-6484
▁boyfriend	-6485
▁prompting	-6486
▁testimony	-6487
▁authorized	-6488
▁suggesting	-6489
▁communities	-6490
▁overwhelming	-6491
po	-6492
uma	-6493
uni	-6494
won	-6495
zed	-6496
▁kl	-6497
▁fit	-6498
▁gye	-6499
▁mit	-6500
▁rif	-6501
▁ske	-6502
enses	-6503
orted	-6504
▁bags	-6505
▁cham	-6506
▁file	-6507
▁golf	-6508
▁palm	-6509
▁plut	-6510
▁pose	-6511
▁sche	-6512
ashing	-6513
encing	-6514
ichuan	-6515
▁alban	-6516
▁chest	-6517
▁czech	-6518
▁deals	-6519
▁gross	-6520
▁harsh	-6521
▁smugg	-6522
▁stern	-6523
▁sweep	-6524
achment	-6525
▁dubbed	-6526
▁easily	-6527
▁insist	-6528
▁runway	-6529
▁sheikh	-6530
▁staged	-6531
▁thirds	-6532
standing	-6533
ulations	-6534
▁austria	-6535
▁becomes	-6536
▁marines	-6537
▁rebuild	-6538
▁somalia	-6539
▁stephen	-6540
▁uniform	-6541
▁striking	-6542
▁unfortun	-6543
▁violated	-6544
▁attending	-6545
▁contained	-6546
▁increases	-6547
▁performed	-6548
▁plutonium	-6549
▁corporation	-6550
▁negotiators	-6551
▁reconciliation	-6552
80	-6553
agn	-6554
oli	-6555
oto	-6556
roc	-6557
achi	-6558
aint	-6559
ardo	-6560
eces	-6561
ella	-6562
▁bes	-6563
▁bor	-6564
▁dad	-6565
▁dan	-6566
▁joe	-6567
▁joh	-6568
▁lah	-6569
▁ray	-6570
▁tel	-6571
ecess	-6572
inted	-6573
▁1960	-6574
▁busy	-6575
▁lapt	-6576
▁mete	-6577
▁murd	-6578
▁wors	-6579
dering	-6580
▁bases	-6581
▁chris	-6582
▁doors	-6583
▁feels	-6584
▁plays	-6585
▁solid	-6586
▁turns	-6587
▁fierce	-6588
▁gallon	-6589
▁mccorm	-6590
▁parent	-6591
▁storms	-6592
▁strict	-6593
▁temple	-6594
▁tennes	-6595
▁underw	-6596
▁benefit	-6597
▁fishing	-6598
▁hitting	-6599
▁outrage	-6600
▁separat	-6601
▁trigger	-6602
▁worries	-6603
▁distance	-6604
▁dramatic	-6605
▁familiar	-6606
▁payments	-6607
▁alongside	-6608
▁locations	-6609
▁otherwise	-6610
▁conducting	-6611
▁relatively	-6612
▁legislative	-6613
▁transferred	-6614
ua	-6615
bor	-6616
dum	-6617
efa	-6618
ema	-6619
met	-6620
rie	-6621
gers	-6622
iani	-6623
wait	-6624
▁gad	-6625
aters	-6626
echan	-6627
icked	-6628
▁1992	-6629
▁1993	-6630
▁aung	-6631
▁fern	-6632
▁kent	-6633
▁sang	-6634
▁sees	-6635
▁shif	-6636
▁spac	-6637
▁uefa	-6638
▁capit	-6639
▁cloud	-6640
▁legit	-6641
▁sweet	-6642
▁write	-6643
ography	-6644
▁courts	-6645
▁defect	-6646
▁depend	-6647
▁factor	-6648
▁hosted	-6649
▁kuwait	-6650
▁observ	-6651
▁romney	-6652
▁tackle	-6653
▁briefly	-6654
▁comprom	-6655
▁divorce	-6656
▁inaugur	-6657
▁privacy	-6658
▁ranging	-6659
▁controls	-6660
▁defended	-6661
▁networks	-6662
▁ordinary	-6663
▁platform	-6664
▁priority	-6665
▁celebrity	-6666
▁generally	-6667
▁tennessee	-6668
▁absolutely	-6669
▁defendants	-6670
▁referendum	-6671
▁responding	-6672
▁electronics	-6673
▁institutions	-6674
dd	-6675
had	-6676
ito	-6677
aire	-6678
enna	-6679
hips	-6680
mand	-6681
ourt	-6682
reek	-6683
▁ski	-6684
▁tam	-6685
▁yen	-6686
dinga	-6687
dogan	-6688
umbai	-6689
uting	-6690
▁dust	-6691
▁khal	-6692
▁kiss	-6693
▁loan	-6694
▁ryan	-6695
ducing	-6696
▁cargo	-6697
▁flags	-6698
▁frust	-6699
▁larry	-6700
▁nancy	-6701
▁pilgr	-6702
▁raids	-6703
▁teens	-6704
▁tiger	-6705
▁worry	-6706
ception	-6707
▁artist	-6708
▁carter	-6709
▁endors	-6710
▁infant	-6711
▁meteor	-6712
▁motion	-6713
▁mumbai	-6714
▁myster	-6715
▁odinga	-6716
▁oldest	-6717
▁satisf	-6718
▁shield	-6719
▁stable	-6720
▁thinks	-6721
▁unrest	-6722
▁antonio	-6723
▁barrels	-6724
▁consist	-6725
▁erdogan	-6726
▁gambari	-6727
▁kidnapp	-6728
▁pointed	-6729
▁prepare	-6730
▁returns	-6731
▁suspend	-6732
▁writers	-6733
▁advanced	-6734
▁baseball	-6735
▁combined	-6736
▁handling	-6737
▁improved	-6738
▁inspired	-6739
▁interrog	-6740
▁purchase	-6741
▁receiving	-6742
▁temporary	-6743
▁wolfowitz	-6744
▁occupation	-6745
▁appointment	-6746
▁compensation	-6747
▁administrative	-6748
di	-6749
hs	-6750
km	-6751
ala	-6752
▁81	-6753
kets	-6754
▁900	-6755
▁ded	-6756
▁emp	-6757
▁hee	-6758
▁hij	-6759
▁jac	-6760
▁jae	-6761
▁nam	-6762
▁sir	-6763
liest	-6764
mates	-6765
owing	-6766
usion	-6767
▁anth	-6768
▁cave	-6769
▁kate	-6770
▁pitt	-6771
ansion	-6772
makers	-6773
▁advoc	-6774
▁galax	-6775
▁libya	-6776
▁paulo	-6777
▁saved	-6778
▁thank	-6779
▁walls	-6780
angered	-6781
▁advice	-6782
▁athens	-6783
▁listed	-6784
▁mechan	-6785
▁poland	-6786
▁unders	-6787
▁wounds	-6788
idelines	-6789
▁balance	-6790
▁capture	-6791
▁crossed	-6792
▁fernand	-6793
▁mistake	-6794
▁monitor	-6795
▁operate	-6796
▁profits	-6797
▁spotted	-6798
▁switzer	-6799
▁turnout	-6800
▁typhoon	-6801
▁veteran	-6802
▁athletes	-6803
▁imprison	-6804
▁isolated	-6805
▁throwing	-6806
▁explosive	-6807
▁incidents	-6808
▁recognize	-6809
▁shootings	-6810
▁announcing	-6811
▁bangladesh	-6812
▁containing	-6813
▁endangered	-6814
▁advertising	-6815
▁switzerland	-6816
▁northeastern	-6817
law	-6818
sey	-6819
▁91	-6820
mont	-6821
▁amn	-6822
anded	-6823
▁anch	-6824
▁bath	-6825
▁bowl	-6826
▁excl	-6827
▁legs	-6828
▁marc	-6829
▁soil	-6830
▁unex	-6831
▁aside	-6832
▁cable	-6833
▁crist	-6834
▁fleet	-6835
▁laure	-6836
▁mixed	-6837
▁nowak	-6838
▁orbit	-6839
▁slump	-6840
oration	-6841
▁advent	-6842
▁agents	-6843
▁andrew	-6844
▁destin	-6845
▁donald	-6846
▁ethiop	-6847
▁extend	-6848
▁imposs	-6849
▁legend	-6850
▁liquid	-6851
▁ousted	-6852
▁pelosi	-6853
▁amnesty	-6854
▁amounts	-6855
▁arrests	-6856
▁awarded	-6857
▁carrier	-6858
▁clothes	-6859
▁joining	-6860
▁praised	-6861
▁purpose	-6862
▁trained	-6863
▁appealed	-6864
▁delegate	-6865
▁gonzales	-6866
▁indicate	-6867
▁provides	-6868
▁benchmark	-6869
▁fundament	-6870
▁mccormack	-6871
▁producers	-6872
▁promoting	-6873
▁shortages	-6874
▁structure	-6875
▁villagers	-6876
▁relocation	-6877
▁settlement	-6878
▁disappeared	-6879
▁sovereignty	-6880
gi	-6881
ka	-6882
▁yi	-6883
amas	-6884
ario	-6885
atra	-6886
irai	-6887
roit	-6888
ucky	-6889
uter	-6890
▁dry	-6891
▁jin	-6892
▁sav	-6893
▁tsv	-6894
ulner	-6895
▁acce	-6896
▁clar	-6897
▁eric	-6898
▁huck	-6899
▁roof	-6900
▁shah	-6901
▁tent	-6902
▁wart	-6903
▁wish	-6904
▁breed	-6905
▁burst	-6906
▁charl	-6907
▁embry	-6908
▁guerr	-6909
▁hamid	-6910
▁meter	-6911
▁moore	-6912
▁solve	-6913
▁units	-6914
▁wreck	-6915
▁actors	-6916
▁attrib	-6917
▁beauty	-6918
▁darwin	-6919
▁easier	-6920
▁gyeong	-6921
▁miners	-6922
▁missed	-6923
▁motors	-6924
▁pursue	-6925
▁rivers	-6926
▁stalin	-6927
▁therap	-6928
▁transl	-6929
▁values	-6930
▁airways	-6931
▁capitol	-6932
▁dealers	-6933
▁detroit	-6934
▁hunting	-6935
▁ireland	-6936
▁seventh	-6937
▁shelter	-6938
▁volcano	-6939
▁welfare	-6940
▁winners	-6941
▁mohammad	-6942
▁prospect	-6943
▁referred	-6944
▁senators	-6945
▁thousand	-6946
▁attorneys	-6947
▁complaint	-6948
▁improving	-6949
▁negotiate	-6950
▁pollution	-6951
▁submitted	-6952
▁surprised	-6953
▁extraordin	-6954
▁extremists	-6955
▁volunteers	-6956
▁appropriate	-6957
▁successfully	-6958
bl	-6959
ads	-6960
bes	-6961
quo	-6962
brid	-6963
gans	-6964
mond	-6965
oons	-6966
oren	-6967
phia	-6968
uese	-6969
▁keb	-6970
▁les	-6971
▁lev	-6972
▁naz	-6973
▁soo	-6974
burgh	-6975
rahim	-6976
under	-6977
▁fulf	-6978
▁hugo	-6979
▁inch	-6980
▁leak	-6981
▁orle	-6982
▁spur	-6983
▁unac	-6984
▁latin	-6985
▁lobby	-6986
▁opens	-6987
▁phill	-6988
▁weigh	-6989
▁whale	-6990
angirai	-6991
▁copies	-6992
▁eighth	-6993
▁freeze	-6994
▁nether	-6995
▁orange	-6996
▁regret	-6997
▁runoff	-6998
▁stabil	-6999
▁starts	-7000
▁strain	-7001
▁visits	-7002
▁whales	-7003
adelphia	-7004
atically	-7005
▁caution	-7006
▁dressed	-7007
▁pleaded	-7008
▁samples	-7009
▁seattle	-7010
▁torture	-7011
▁variety	-7012
▁wartime	-7013
▁detected	-7014
▁employee	-7015
▁petition	-7016
▁quarterf	-7017
▁recalled	-7018
▁wireless	-7019
▁efficient	-7020
▁approached	-7021
▁complaints	-7022
▁economists	-7023
▁impossible	-7024
▁portuguese	-7025
▁richardson	-7026
▁securities	-7027
▁tsvangirai	-7028
▁accusations	-7029
▁documentary	-7030
▁experienced	-7031
▁negotiating	-7032
▁netherlands	-7033
▁photographs	-7034
▁philadelphia	-7035
ez	-7036
akh	-7037
imp	-7038
rit	-7039
uez	-7040
▁88	-7041
apes	-7042
bour	-7043
▁160	-7044
▁hud	-7045
▁mog	-7046
▁vig	-7047
ining	-7048
oping	-7049
space	-7050
▁bars	-7051
▁core	-7052
▁emir	-7053
▁fred	-7054
▁giul	-7055
▁gren	-7056
▁laid	-7057
▁mall	-7058
▁obst	-7059
▁peak	-7060
▁touc	-7061
▁chain	-7062
▁chaos	-7063
▁crews	-7064
▁explo	-7065
▁posts	-7066
▁semif	-7067
▁terri	-7068
▁toile	-7069
actions	-7070
entions	-7071
▁conven	-7072
▁divers	-7073
▁finger	-7074
▁hybrid	-7075
▁syrian	-7076
▁twenty	-7077
▁yangon	-7078
▁abandon	-7079
▁arrange	-7080
▁declare	-7081
▁disable	-7082
▁minimum	-7083
▁orleans	-7084
▁polling	-7085
▁renewed	-7086
▁revenue	-7087
▁sailors	-7088
▁viewers	-7089
▁assassin	-7090
▁billions	-7091
▁dictator	-7092
▁executed	-7093
▁homeless	-7094
▁informed	-7095
▁learning	-7096
▁missions	-7097
▁missouri	-7098
▁requires	-7099
▁sexually	-7100
▁swimming	-7101
▁abandoned	-7102
▁contracts	-7103
▁elsewhere	-7104
▁guarantee	-7105
▁winehouse	-7106
▁bankruptcy	-7107
▁classified	-7108
▁historical	-7109
▁interested	-7110
▁politician	-7111
▁popularity	-7112
ira	-7113
iya	-7114
▁99	-7115
▁gy	-7116
elly	-7117
ocol	-7118
onia	-7119
ysis	-7120
▁egg	-7121
▁fol	-7122
▁hin	-7123
▁map	-7124
▁que	-7125
▁tie	-7126
▁unh	-7127
▁yas	-7128
berto	-7129
ledon	-7130
rence	-7131
rimin	-7132
▁1989	-7133
▁chol	-7134
▁entr	-7135
▁flat	-7136
▁mamm	-7137
▁rand	-7138
▁rudd	-7139
▁stol	-7140
▁todd	-7141
▁whit	-7142
▁wimb	-7143
▁zero	-7144
ecraft	-7145
rupted	-7146
▁acres	-7147
▁annan	-7148
▁cards	-7149
▁davis	-7150
▁eleph	-7151
▁grass	-7152
▁lanka	-7153
▁motiv	-7154
▁posed	-7155
▁stuff	-7156
▁timet	-7157
holders	-7158
ructure	-7159
▁blasts	-7160
▁centre	-7161
▁merkel	-7162
▁rodrig	-7163
▁rushed	-7164
▁spoken	-7165
▁topped	-7166
▁volunt	-7167
▁warner	-7168
▁compete	-7169
▁feature	-7170
▁interim	-7171
▁legally	-7172
▁monthly	-7173
▁passing	-7174
▁quoting	-7175
▁tension	-7176
▁arriving	-7177
▁contrast	-7178
▁giuliani	-7179
▁interven	-7180
▁purposes	-7181
▁studying	-7182
▁suddenly	-7183
▁addressed	-7184
▁attacking	-7185
▁defending	-7186
▁sectarian	-7187
▁technolog	-7188
▁violating	-7189
▁wimbledon	-7190
▁assessment	-7191
▁greenhouse	-7192
▁interviews	-7193
▁spacecraft	-7194
▁nominations	-7195
▁potentially	-7196
▁inauguration	-7197
lah	-7198
mor	-7199
uro	-7200
▁fi	-7201
kins	-7202
otti	-7203
wers	-7204
▁dol	-7205
▁hou	-7206
▁ioc	-7207
▁jav	-7208
▁mud	-7209
▁sab	-7210
ching	-7211
sfeld	-7212
▁barg	-7213
▁blan	-7214
▁burn	-7215
▁chip	-7216
▁dawn	-7217
▁dean	-7218
▁diet	-7219
▁dign	-7220
▁empt	-7221
▁hack	-7222
▁yoon	-7223
▁yuan	-7224
apolis	-7225
icting	-7226
▁consc	-7227
▁discl	-7228
▁euros	-7229
▁heath	-7230
▁jerry	-7231
▁proof	-7232
▁rains	-7233
▁robot	-7234
▁rocks	-7235
▁shoes	-7236
▁theme	-7237
▁trend	-7238
▁trick	-7239
▁unpre	-7240
▁upset	-7241
▁waves	-7242
▁brutal	-7243
▁impose	-7244
▁listen	-7245
▁murray	-7246
▁reiter	-7247
▁stolen	-7248
▁surren	-7249
▁vulner	-7250
▁aftersh	-7251
▁cloning	-7252
▁granted	-7253
▁matters	-7254
▁resumed	-7255
▁sichuan	-7256
▁slammed	-7257
▁unident	-7258
▁verdict	-7259
▁vessels	-7260
▁astronom	-7261
▁attitude	-7262
▁consecut	-7263
▁disputed	-7264
▁exposure	-7265
▁function	-7266
▁momentum	-7267
▁campaigns	-7268
▁denuclear	-7269
▁departure	-7270
▁louisiana	-7271
▁spreading	-7272
▁strategic	-7273
▁agreements	-7274
▁experiment	-7275
▁represents	-7276
▁strengthen	-7277
▁violations	-7278
▁broadcaster	-7279
▁conversation	-7280
▁representing	-7281
▁unidentified	-7282
▁extraordinary	-7283
rd	-7284
ti	-7285
aud	-7286
hdi	-7287
iel	-7288
abee	-7289
aman	-7290
aste	-7291
cons	-7292
omen	-7293
onda	-7294
▁dim	-7295
▁len	-7296
▁lun	-7297
▁nin	-7298
▁nut	-7299
▁tra	-7300
▁urg	-7301
apova	-7302
igned	-7303
itage	-7304
▁calc	-7305
▁caps	-7306
▁fert	-7307
▁gate	-7308
▁gray	-7309
▁iron	-7310
▁jews	-7311
▁meat	-7312
▁nice	-7313
▁opec	-7314
▁riot	-7315
▁sequ	-7316
arched	-7317
▁acted	-7318
▁clash	-7319
▁cleve	-7320
▁fever	-7321
▁frame	-7322
▁laugh	-7323
▁mehdi	-7324
▁postp	-7325
▁raquo	-7326
▁repro	-7327
▁risks	-7328
▁swift	-7329
▁usual	-7330
▁woods	-7331
▁apprec	-7332
▁arabic	-7333
▁behalf	-7334
▁client	-7335
▁handle	-7336
▁mental	-7337
▁powell	-7338
▁rumors	-7339
▁trucks	-7340
▁classic	-7341
▁constit	-7342
▁element	-7343
▁enterpr	-7344
▁outcome	-7345
▁pending	-7346
▁pulling	-7347
▁tickets	-7348
▁colonial	-7349
▁huckabee	-7350
▁indicted	-7351
▁injuring	-7352
▁occasion	-7353
▁rumsfeld	-7354
▁selected	-7355
▁teenager	-7356
▁criminals	-7357
▁deadliest	-7358
▁detainees	-7359
▁followers	-7360
▁marketing	-7361
▁residence	-7362
▁sentiment	-7363
▁sharapova	-7364
▁spiritual	-7365
▁strengthe	-7366
▁protecting	-7367
▁ultimately	-7368
▁consecutive	-7369
▁investigated	-7370
▁technologies	-7371
▁disappearance	-7372
▁significantly	-7373
sl	-7374
wr	-7375
yc	-7376
zi	-7377
cho	-7378
ico	-7379
osa	-7380
▁86	-7381
▁sg	-7382
heim	-7383
more	-7384
ribe	-7385
▁jur	-7386
▁lag	-7387
▁rot	-7388
▁tum	-7389
▁yel	-7390
ensus	-7391
oster	-7392
place	-7393
▁abol	-7394
▁blew	-7395
▁earn	-7396
▁embr	-7397
▁gian	-7398
▁hits	-7399
▁jane	-7400
▁jint	-7401
▁pand	-7402
▁pron	-7403
▁soph	-7404
▁unco	-7405
▁utah	-7406
keeper	-7407
▁cheap	-7408
▁grant	-7409
▁intel	-7410
▁preca	-7411
▁relax	-7412
▁roger	-7413
▁shape	-7414
▁wales	-7415
▁affili	-7416
▁kansas	-7417
▁models	-7418
▁notice	-7419
▁pilots	-7420
▁retire	-7421
▁slaves	-7422
▁suburb	-7423
▁switch	-7424
▁tracks	-7425
▁traged	-7426
▁barbara	-7427
▁classes	-7428
▁drawing	-7429
▁exposed	-7430
▁houston	-7431
▁inquiry	-7432
▁signals	-7433
▁collabor	-7434
▁detailed	-7435
▁deterior	-7436
▁earnings	-7437
▁withdrew	-7438
▁accidents	-7439
▁celebrate	-7440
▁denounced	-7441
▁happening	-7442
▁testified	-7443
▁virtually	-7444
▁employment	-7445
▁inspection	-7446
▁investigator	-7447
▁confrontation	-7448
fk	-7449
ela	-7450
ila	-7451
odo	-7452
▁wy	-7453
ache	-7454
ette	-7455
icts	-7456
irac	-7457
moil	-7458
ores	-7459
rast	-7460
▁140	-7461
▁180	-7462
▁ads	-7463
▁ark	-7464
▁ast	-7465
▁cul	-7466
▁gig	-7467
▁kun	-7468
▁nov	-7469
▁ppp	-7470
▁rav	-7471
▁sao	-7472
antic	-7473
icken	-7474
▁eval	-7475
▁nurs	-7476
▁omar	-7477
▁shed	-7478
▁stir	-7479
▁ward	-7480
atched	-7481
iliate	-7482
▁blaze	-7483
▁bones	-7484
▁buses	-7485
▁chose	-7486
▁clock	-7487
▁crops	-7488
▁decre	-7489
▁greek	-7490
▁pipel	-7491
▁ahmadi	-7492
▁arctic	-7493
▁belief	-7494
▁delays	-7495
▁denies	-7496
▁hudson	-7497
▁indeed	-7498
▁jintao	-7499
▁lahore	-7500
▁massac	-7501
▁pieces	-7502
▁prefer	-7503
▁proved	-7504
▁raided	-7505
▁safely	-7506
▁submit	-7507
▁wright	-7508
▁ceremon	-7509
▁counsel	-7510
▁factors	-7511
▁karachi	-7512
▁masters	-7513
▁objects	-7514
▁parking	-7515
▁plunged	-7516
▁reconst	-7517
▁robbery	-7518
▁tornado	-7519
▁transpl	-7520
▁turmoil	-7521
▁underst	-7522
▁clothing	-7523
▁israelis	-7524
▁landmark	-7525
▁resolved	-7526
▁stepping	-7527
▁construct	-7528
▁malaysian	-7529
▁nationals	-7530
▁projected	-7531
▁releasing	-7532
▁sentences	-7533
▁stationed	-7534
▁timetable	-7535
▁uncertain	-7536
▁undermine	-7537
▁characters	-7538
▁conclusion	-7539
▁designated	-7540
▁maintained	-7541
▁devastating	-7542
▁substantial	-7543
▁trafficking	-7544
▁specifically	-7545
▁conservatives	-7546
uz	-7547
bul	-7548
gue	-7549
iox	-7550
por	-7551
▁ni	-7552
ahar	-7553
fast	-7554
ouch	-7555
rate	-7556
▁bae	-7557
▁dvd	-7558
▁ecu	-7559
▁fuj	-7560
▁lav	-7561
▁mbc	-7562
▁sci	-7563
▁upd	-7564
ooter	-7565
▁adds	-7566
▁barr	-7567
▁fant	-7568
▁nuri	-7569
▁rank	-7570
▁sett	-7571
▁tomb	-7572
intend	-7573
▁crown	-7574
▁flown	-7575
▁imper	-7576
▁jihad	-7577
▁lewis	-7578
▁monet	-7579
▁mosul	-7580
▁oklah	-7581
▁phase	-7582
▁retal	-7583
▁abuses	-7584
▁bodygu	-7585
▁carlos	-7586
▁desper	-7587
▁engage	-7588
▁instru	-7589
▁kenyan	-7590
▁luxury	-7591
▁peters	-7592
▁physic	-7593
▁shaped	-7594
▁slated	-7595
▁steady	-7596
▁taylor	-7597
▁theory	-7598
▁titles	-7599
▁tunnel	-7600
▁vienna	-7601
▁viewed	-7602
▁warren	-7603
cedented	-7604
▁approve	-7605
▁condemn	-7606
▁ibrahim	-7607
▁inquest	-7608
▁marched	-7609
▁moments	-7610
▁pleased	-7611
▁tragedy	-7612
▁crossing	-7613
▁diseases	-7614
▁existing	-7615
▁instruct	-7616
▁midfield	-7617
▁prisoner	-7618
▁reducing	-7619
▁apologize	-7620
▁centuries	-7621
▁cleveland	-7622
▁execution	-7623
▁expansion	-7624
▁expecting	-7625
▁protected	-7626
▁sustained	-7627
▁indicating	-7628
▁industries	-7629
▁laboratory	-7630
▁personally	-7631
▁prevention	-7632
▁protesting	-7633
▁celebrities	-7634
▁effectively	-7635
▁presumptive	-7636
▁proceedings	-7637
▁recommended	-7638
▁respondents	-7639
▁unprecedented	-7640
20	-7641
hy	-7642
ui	-7643
▁84	-7644
bell	-7645
iful	-7646
lock	-7647
tsin	-7648
▁hye	-7649
▁tar	-7650
▁zaw	-7651
▁brus	-7652
▁cats	-7653
▁dall	-7654
▁evil	-7655
▁publ	-7656
▁tact	-7657
▁tale	-7658
▁urge	-7659
consin	-7660
icated	-7661
lusive	-7662
pected	-7663
▁beaut	-7664
▁craig	-7665
▁disab	-7666
▁empty	-7667
▁maria	-7668
▁medal	-7669
▁naked	-7670
▁seung	-7671
▁songs	-7672
▁timor	-7673
▁trips	-7674
▁amazon	-7675
▁chirac	-7676
▁disord	-7677
▁distur	-7678
▁interf	-7679
▁nobody	-7680
▁reluct	-7681
▁rounds	-7682
▁salmon	-7683
▁studio	-7684
▁sweden	-7685
▁telesc	-7686
▁unfair	-7687
▁vision	-7688
▁beneath	-7689
▁carries	-7690
▁cocaine	-7691
▁congrat	-7692
▁ecuador	-7693
▁knocked	-7694
▁marking	-7695
▁soaring	-7696
▁tougher	-7697
▁unnamed	-7698
▁yeltsin	-7699
▁deciding	-7700
▁dropping	-7701
▁endorsed	-7702
▁oklahoma	-7703
▁passport	-7704
▁ballistic	-7705
▁extensive	-7706
▁featuring	-7707
▁rodriguez	-7708
▁socialist	-7709
▁surrender	-7710
▁teenagers	-7711
▁wisconsin	-7712
▁explosions	-7713
▁indication	-7714
▁suspicious	-7715
▁anticipated	-7716
▁impeachment	-7717
ca	-7718
je	-7719
jo	-7720
pi	-7721
sa	-7722
xi	-7723
amo	-7724
rah	-7725
tan	-7726
udh	-7727
▁ax	-7728
▁pm	-7729
acle	-7730
gger	-7731
irut	-7732
loid	-7733
oric	-7734
rist	-7735
uous	-7736
uten	-7737
▁350	-7738
▁dor	-7739
▁mcd	-7740
▁raj	-7741
▁sgt	-7742
itors	-7743
izumi	-7744
ounce	-7745
▁cafe	-7746
▁cosm	-7747
▁deny	-7748
▁kath	-7749
▁kitt	-7750
▁plum	-7751
▁scar	-7752
▁celeb	-7753
▁cuban	-7754
▁genoc	-7755
▁keeps	-7756
▁parks	-7757
▁patri	-7758
▁risen	-7759
▁seeks	-7760
▁shell	-7761
▁thick	-7762
iveness	-7763
▁beirut	-7764
▁consol	-7765
▁embezz	-7766
▁extrad	-7767
▁hunger	-7768
▁implic	-7769
▁nicole	-7770
▁revive	-7771
▁scheme	-7772
▁shinzo	-7773
▁signal	-7774
▁stroke	-7775
▁writer	-7776
▁autonom	-7777
▁broader	-7778
▁chapter	-7779
▁clashed	-7780
▁genetic	-7781
▁koizumi	-7782
▁outlook	-7783
▁overtur	-7784
▁rowling	-7785
▁slipped	-7786
▁tabloid	-7787
▁touched	-7788
▁aviation	-7789
▁centered	-7790
▁contains	-7791
▁covering	-7792
▁discover	-7793
▁kentucky	-7794
▁mounting	-7795
▁resulted	-7796
▁stranded	-7797
▁wreckage	-7798
▁ambitions	-7799
▁consensus	-7800
▁displaced	-7801
▁economies	-7802
▁evolution	-7803
▁indicates	-7804
▁launching	-7805
▁predecess	-7806
▁prominent	-7807
▁promising	-7808
▁recording	-7809
▁aggressive	-7810
▁commanders	-7811
▁importance	-7812
▁membership	-7813
▁permission	-7814
▁unexpected	-7815
▁concessions	-7816
▁fundamental	-7817
▁universities	-7818
eav	-7819
oys	-7820
pay	-7821
rav	-7822
▁02	-7823
anic	-7824
cape	-7825
dick	-7826
hand	-7827
held	-7828
iser	-7829
keys	-7830
shot	-7831
▁125	-7832
▁dak	-7833
▁gil	-7834
▁rah	-7835
▁unw	-7836
iders	-7837
ingly	-7838
lects	-7839
▁flex	-7840
▁gest	-7841
▁idol	-7842
▁jets	-7843
▁lies	-7844
▁lord	-7845
▁pard	-7846
▁puts	-7847
▁tiss	-7848
▁tool	-7849
▁wore	-7850
▁yard	-7851
arrass	-7852
attled	-7853
rehens	-7854
weight	-7855
▁aired	-7856
▁airpl	-7857
▁ambul	-7858
▁badly	-7859
▁branc	-7860
▁pitch	-7861
▁spani	-7862
▁steep	-7863
▁stops	-7864
▁zawah	-7865
ulating	-7866
▁downlo	-7867
▁endeav	-7868
▁funded	-7869
▁galaxy	-7870
▁hearts	-7871
▁rafael	-7872
▁repair	-7873
▁stayed	-7874
cription	-7875
▁acceler	-7876
▁advised	-7877
▁elderly	-7878
▁explore	-7879
▁flooded	-7880
▁happens	-7881
▁impover	-7882
▁jobless	-7883
▁longest	-7884
▁nigeria	-7885
▁passion	-7886
▁pressed	-7887
▁signing	-7888
▁teenage	-7889
▁totally	-7890
▁attached	-7891
▁frontier	-7892
▁heritage	-7893
▁longtime	-7894
▁michelle	-7895
▁overcome	-7896
▁searched	-7897
▁shoulder	-7898
▁slowdown	-7899
▁cooperate	-7900
▁embarrass	-7901
▁mandatory	-7902
▁penalties	-7903
▁principle	-7904
▁universal	-7905
▁discussing	-7906
▁frequently	-7907
▁geological	-7908
▁insurgency	-7909
▁philippine	-7910
▁principles	-7911
▁recognized	-7912
▁resistance	-7913
▁politically	-7914
▁consequences	-7915
▁impoverished	-7916
▁shareholders	-7917
dp	-7918
ji	-7919
ati	-7920
ima	-7921
iot	-7922
ums	-7923
▁98	-7924
▁dj	-7925
▁ja	-7926
▁om	-7927
cker	-7928
ials	-7929
indi	-7930
mail	-7931
math	-7932
ooth	-7933
roll	-7934
stra	-7935
▁193	-7936
▁ing	-7937
▁kyu	-7938
▁mrs	-7939
▁pig	-7940
▁pye	-7941
▁sed	-7942
▁sym	-7943
▁tae	-7944
▁tut	-7945
▁yoo	-7946
ables	-7947
emies	-7948
olved	-7949
rical	-7950
state	-7951
teria	-7952
vedev	-7953
▁curb	-7954
▁katr	-7955
▁mans	-7956
▁mide	-7957
▁rans	-7958
▁bears	-7959
▁daugh	-7960
▁diagn	-7961
▁flame	-7962
▁flash	-7963
▁forth	-7964
▁graph	-7965
▁jolie	-7966
▁lists	-7967
▁marit	-7968
▁naval	-7969
▁prest	-7970
▁puert	-7971
▁scrap	-7972
▁skull	-7973
▁spill	-7974
▁truce	-7975
▁accuse	-7976
▁charts	-7977
▁checks	-7978
▁commem	-7979
▁conced	-7980
▁elabor	-7981
▁forget	-7982
▁incred	-7983
▁judici	-7984
▁myself	-7985
▁rubble	-7986
▁stages	-7987
▁videot	-7988
▁battles	-7989
▁customs	-7990
▁deficit	-7991
▁disrupt	-7992
▁enemies	-7993
▁fighter	-7994
▁harvard	-7995
▁imagine	-7996
▁infrast	-7997
▁insists	-7998
▁mideast	-7999
▁prosper	-8000
▁railway	-8001
▁roddick	-8002
▁shocked	-8003
▁veterin	-8004
▁wrapped	-8005
▁chancell	-8006
▁describe	-8007
▁genocide	-8008
▁medvedev	-8009
▁pilgrims	-8010
▁pursuing	-8011
▁shutdown	-8012
▁supports	-8013
▁unaccept	-8014
▁aftermath	-8015
▁attracted	-8016
▁daughters	-8017
▁diplomacy	-8018
▁promotion	-8019
▁reference	-8020
▁resulting	-8021
▁christians	-8022
▁everywhere	-8023
▁goalkeeper	-8024
▁procedures	-8025
▁reiterated	-8026
▁accompanied	-8027
▁outstanding	-8028
▁personality	-8029
▁temporarily	-8030
▁peacekeeping	-8031
▁manufacturers	-8032
asa	-8033
hou	-8034
iti	-8035
net	-8036
phy	-8037
▁83	-8038
anim	-8039
itis	-8040
uman	-8041
ylum	-8042
▁agg	-8043
▁ori	-8044
▁reh	-8045
eller	-8046
igers	-8047
right	-8048
▁alab	-8049
▁chan	-8050
▁chat	-8051
▁diox	-8052
▁forg	-8053
▁horm	-8054
▁kand	-8055
▁pool	-8056
▁rush	-8057
▁topp	-8058
elling	-8059
inding	-8060
▁canal	-8061
▁diver	-8062
▁mobil	-8063
▁raped	-8064
▁riots	-8065
▁shirt	-8066
▁shook	-8067
▁wider	-8068
▁asylum	-8069
▁compon	-8070
▁dating	-8071
▁garden	-8072
▁limits	-8073
▁marath	-8074
▁riding	-8075
▁saving	-8076
▁taxpay	-8077
▁colored	-8078
▁dioxide	-8079
▁excited	-8080
▁futures	-8081
▁katrina	-8082
▁lifting	-8083
▁monarch	-8084
▁realize	-8085
▁singing	-8086
▁vermont	-8087
▁vitamin	-8088
▁abortion	-8089
▁analysis	-8090
▁anderson	-8091
▁disagree	-8092
▁disputes	-8093
▁focusing	-8094
▁incoming	-8095
▁judicial	-8096
▁kandahar	-8097
▁maritime	-8098
▁militias	-8099
▁minority	-8100
▁persuade	-8101
▁register	-8102
▁abduction	-8103
▁affiliate	-8104
▁automaker	-8105
▁emotional	-8106
▁judiciary	-8107
▁obviously	-8108
▁offenders	-8109
▁retailers	-8110
▁therefore	-8111
▁typically	-8112
▁addressing	-8113
▁attributed	-8114
▁celebrated	-8115
▁legitimate	-8116
▁remarkable	-8117
▁suspension	-8118
▁vulnerable	-8119
▁confirmation	-8120
eva	-8121
few	-8122
ien	-8123
▁pf	-8124
▁ww	-8125
▁zh	-8126
agic	-8127
away	-8128
droe	-8129
lers	-8130
offs	-8131
oner	-8132
raid	-8133
▁alf	-8134
▁chi	-8135
▁enh	-8136
▁fda	-8137
▁gus	-8138
▁jay	-8139
▁roy	-8140
▁sul	-8141
▁syn	-8142
chers	-8143
eland	-8144
▁alan	-8145
▁bare	-8146
▁clay	-8147
▁dorm	-8148
▁fake	-8149
▁frag	-8150
▁musc	-8151
▁reop	-8152
▁span	-8153
bourne	-8154
itious	-8155
▁ahmed	-8156
▁bloom	-8157
▁chase	-8158
▁exped	-8159
▁guang	-8160
▁henin	-8161
▁kyoto	-8162
▁minds	-8163
▁pharm	-8164
▁pitts	-8165
▁shark	-8166
▁skept	-8167
▁stamp	-8168
▁types	-8169
▁cheong	-8170
▁curfew	-8171
▁equity	-8172
▁giants	-8173
▁hailed	-8174
▁noting	-8175
▁output	-8176
▁scenes	-8177
▁serves	-8178
▁toyota	-8179
▁unique	-8180
▁alabama	-8181
▁applied	-8182
▁bottles	-8183
▁closest	-8184
▁crowded	-8185
▁exchang	-8186
▁habitat	-8187
▁myspace	-8188
▁sectors	-8189
▁contamin	-8190
▁emirates	-8191
▁featured	-8192
▁managers	-8193
▁mistakes	-8194
▁monetary	-8195
▁operated	-8196
▁properly	-8197
▁religion	-8198
▁sponsors	-8199
▁victoria	-8200
▁interpret	-8201
▁landslide	-8202
▁procedure	-8203
▁regularly	-8204
▁uncovered	-8205
▁chancellor	-8206
▁conviction	-8207
▁kidnappers	-8208
▁laundering	-8209
▁liberation	-8210
▁statistics	-8211
▁consumption	-8212
▁institution	-8213
▁interviewed	-8214
▁northwestern	-8215
▁championships	-8216
▁unfortunately	-8217
▁correspondents	-8218
▁infrastructure	-8219
esh	-8220
umn	-8221
▁92	-8222
▁96	-8223
▁ip	-8224
aken	-8225
atri	-8226
aved	-8227
efin	-8228
elro	-8229
inos	-8230
mans	-8231
oles	-8232
rets	-8233
sell	-8234
uits	-8235
vili	-8236
▁dun	-8237
▁ell	-8238
▁lyn	-8239
▁oxy	-8240
▁uni	-8241
anamo	-8242
erald	-8243
inced	-8244
oured	-8245
▁1986	-8246
▁buzz	-8247
▁cert	-8248
▁exha	-8249
▁flee	-8250
▁geun	-8251
▁glas	-8252
▁kaes	-8253
▁lean	-8254
▁leon	-8255
▁loud	-8256
▁roma	-8257
▁salv	-8258
▁thus	-8259
iments	-8260
umbled	-8261
▁antib	-8262
▁assum	-8263
▁clubs	-8264
▁enorm	-8265
▁falls	-8266
▁fault	-8267
▁fined	-8268
▁guant	-8269
▁guild	-8270
▁horri	-8271
▁kelly	-8272
▁kyodo	-8273
▁kyung	-8274
▁lunch	-8275
▁ramos	-8276
▁relie	-8277
▁sacri	-8278
▁singh	-8279
▁sorry	-8280
▁stead	-8281
▁tower	-8282
▁veget	-8283
▁venue	-8284
▁vigil	-8285
▁volat	-8286
▁wound	-8287
umbling	-8288
▁afraid	-8289
▁banner	-8290
▁branch	-8291
▁compar	-8292
▁doping	-8293
▁geneva	-8294
▁graham	-8295
▁hiding	-8296
▁killer	-8297
▁lasted	-8298
▁prolif	-8299
▁provoc	-8300
▁skills	-8301
▁unanim	-8302
▁wilson	-8303
▁battery	-8304
▁concept	-8305
▁courage	-8306
▁everest	-8307
▁grounds	-8308
▁indefin	-8309
▁leftist	-8310
▁methods	-8311
▁prestig	-8312
▁prolong	-8313
▁studios	-8314
▁traders	-8315
▁tribute	-8316
▁vaccine	-8317
▁anywhere	-8318
▁convince	-8319
▁coverage	-8320
▁elements	-8321
▁frequent	-8322
▁interpol	-8323
▁shipping	-8324
▁surveyed	-8325
▁convinced	-8326
▁declaring	-8327
▁extension	-8328
▁movements	-8329
▁reclusive	-8330
▁struggled	-8331
▁wonderful	-8332
▁compromise	-8333
▁guantanamo	-8334
▁pittsburgh	-8335
▁legislature	-8336
▁respectively	-8337
▁transactions	-8338
▁unacceptable	-8339
▁opportunities	-8340
ci	-8341
oe	-8342
iev	-8343
onn	-8344
pro	-8345
uda	-8346
uja	-8347
▁ry	-8348
born	-8349
ican	-8350
inho	-8351
osex	-8352
vant	-8353
zene	-8354
▁amy	-8355
▁cel	-8356
▁fee	-8357
▁haz	-8358
▁kir	-8359
▁nap	-8360
▁tas	-8361
aimed	-8362
enter	-8363
etown	-8364
iller	-8365
liner	-8366
regon	-8367
rooms	-8368
ulous	-8369
▁bone	-8370
▁dece	-8371
▁eggs	-8372
▁grav	-8373
▁kash	-8374
▁neut	-8375
▁pill	-8376
▁plea	-8377
▁pole	-8378
▁poly	-8379
▁reid	-8380
▁rely	-8381
▁seas	-8382
▁thor	-8383
▁zard	-8384
airobi	-8385
icking	-8386
stream	-8387
▁audio	-8388
▁brook	-8389
▁casey	-8390
▁congo	-8391
▁dolph	-8392
▁elite	-8393
▁feder	-8394
▁forms	-8395
▁guide	-8396
▁lined	-8397
▁moral	-8398
▁notes	-8399
▁simon	-8400
▁swine	-8401
▁theft	-8402
ressive	-8403
unction	-8404
▁boycot	-8405
▁clinic	-8406
▁comply	-8407
▁dallas	-8408
▁exceed	-8409
▁finals	-8410
▁harder	-8411
▁interv	-8412
▁locked	-8413
▁openly	-8414
▁oregon	-8415
▁oxygen	-8416
▁panama	-8417
▁plenty	-8418
▁poison	-8419
▁reward	-8420
▁thirty	-8421
▁uganda	-8422
▁voiced	-8423
▁absence	-8424
▁artists	-8425
▁belgium	-8426
▁blasted	-8427
▁intends	-8428
▁kaesong	-8429
▁lending	-8430
▁nairobi	-8431
▁noticed	-8432
▁portion	-8433
▁pursued	-8434
▁refusal	-8435
▁silence	-8436
▁visible	-8437
▁zardari	-8438
ibilities	-8439
▁campbell	-8440
▁constant	-8441
▁creation	-8442
▁emerging	-8443
▁engineer	-8444
▁entrance	-8445
▁operator	-8446
▁opponent	-8447
▁psychiat	-8448
▁veterans	-8449
▁admission	-8450
▁airstrike	-8451
▁composite	-8452
▁counterfe	-8453
▁infection	-8454
▁insurgent	-8455
▁intercept	-8456
▁paintings	-8457
▁populated	-8458
▁separated	-8459
▁strongest	-8460
▁threatens	-8461
▁background	-8462
▁executions	-8463
▁guerrillas	-8464
▁optimistic	-8465
▁possession	-8466
▁regardless	-8467
▁surprising	-8468
▁complicated	-8469
▁distributed	-8470
▁encouraging	-8471
▁residential	-8472
▁distribution	-8473
ses	-8474
▁89	-8475
▁93	-8476
▁ga	-8477
▁kc	-8478
▁wo	-8479
abet	-8480
acks	-8481
adei	-8482
cont	-8483
iner	-8484
izer	-8485
lose	-8486
mese	-8487
onto	-8488
tada	-8489
yala	-8490
▁110	-8491
▁cdc	-8492
▁fah	-8493
▁hyd	-8494
▁ibm	-8495
▁nba	-8496
▁suk	-8497
▁usa	-8498
aniya	-8499
child	-8500
eless	-8501
etime	-8502
gment	-8503
jamin	-8504
sters	-8505
▁acid	-8506
▁aims	-8507
▁aven	-8508
▁caut	-8509
▁croc	-8510
▁epid	-8511
▁fame	-8512
▁ferg	-8513
▁gear	-8514
▁guys	-8515
▁holl	-8516
▁jenn	-8517
▁krem	-8518
▁lots	-8519
▁mere	-8520
▁mood	-8521
▁noon	-8522
▁pich	-8523
▁rays	-8524
▁seal	-8525
▁slim	-8526
▁symp	-8527
▁twel	-8528
▁twin	-8529
active	-8530
igroup	-8531
nesota	-8532
person	-8533
▁alger	-8534
▁andre	-8535
▁brian	-8536
▁carac	-8537
▁chart	-8538
▁coinc	-8539
▁craft	-8540
▁cyber	-8541
▁dying	-8542
▁helps	-8543
▁marty	-8544
▁meets	-8545
▁pleas	-8546
▁radar	-8547
▁reput	-8548
▁teeth	-8549
▁toler	-8550
▁tours	-8551
▁unpop	-8552
▁wrest	-8553
▁yield	-8554
areness	-8555
▁actual	-8556
▁allied	-8557
▁anchor	-8558
▁archit	-8559
▁ballot	-8560
▁blacks	-8561
▁burden	-8562
▁button	-8563
▁buyers	-8564
▁denver	-8565
▁desire	-8566
▁encoun	-8567
▁gender	-8568
▁hitler	-8569
▁incumb	-8570
▁infect	-8571
▁jungle	-8572
▁kazakh	-8573
▁laptop	-8574
▁libyan	-8575
▁miller	-8576
▁philip	-8577
▁waited	-8578
▁appeals	-8579
▁bahamas	-8580
▁burmese	-8581
▁damages	-8582
▁enjoyed	-8583
▁greeted	-8584
▁hanging	-8585
▁kremlin	-8586
▁lieuten	-8587
▁prostit	-8588
▁serbian	-8589
▁shouldn	-8590
▁spectac	-8591
▁surveys	-8592
▁testify	-8593
▁achieved	-8594
▁activist	-8595
▁benjamin	-8596
▁bernanke	-8597
▁graduate	-8598
▁instance	-8599
▁marathon	-8600
▁massacre	-8601
▁promises	-8602
▁reflects	-8603
▁removing	-8604
▁requests	-8605
▁reserved	-8606
▁universe	-8607
▁zawahiri	-8608
▁awareness	-8609
▁beautiful	-8610
▁citigroup	-8611
▁competing	-8612
▁contacted	-8613
▁directors	-8614
▁minnesota	-8615
▁policeman	-8616
▁postponed	-8617
▁probation	-8618
▁telescope	-8619
▁contenders	-8620
▁definitely	-8621
▁landslides	-8622
▁separately	-8623
▁separatist	-8624
▁specialist	-8625
▁investments	-8626
▁represented	-8627
▁agricultural	-8628
▁proliferation	-8629
rez	-8630
run	-8631
▁hs	-8632
ampa	-8633
awaz	-8634
iffe	-8635
iffs	-8636
ishu	-8637
mate	-8638
orta	-8639
prom	-8640
sels	-8641
wind	-8642
▁avo	-8643
▁bio	-8644
▁hut	-8645
▁lod	-8646
▁meg	-8647
▁mum	-8648
▁pod	-8649
▁tru	-8650
▁vin	-8651
anche	-8652
isive	-8653
lined	-8654
prime	-8655
stone	-8656
▁audi	-8657
▁drow	-8658
▁elig	-8659
▁epis	-8660
▁fees	-8661
▁flaw	-8662
▁mats	-8663
▁mice	-8664
▁milk	-8665
▁nich	-8666
▁phen	-8667
▁rhet	-8668
▁scan	-8669
ecture	-8670
essing	-8671
▁bever	-8672
▁dates	-8673
▁foods	-8674
▁intim	-8675
▁outdo	-8676
▁rocky	-8677
▁tears	-8678
▁terry	-8679
▁ankara	-8680
▁approx	-8681
▁blocks	-8682
▁castle	-8683
▁contem	-8684
▁crocod	-8685
▁danish	-8686
▁exclud	-8687
▁kidney	-8688
▁partly	-8689
▁rooney	-8690
▁rulers	-8691
▁schwar	-8692
▁tanker	-8693
▁thrown	-8694
▁tigers	-8695
▁volume	-8696
▁chamber	-8697
▁fossett	-8698
▁honored	-8699
▁instant	-8700
▁passage	-8701
▁rallied	-8702
▁ratings	-8703
▁revised	-8704
▁scoring	-8705
▁stretch	-8706
▁thanked	-8707
▁wealthy	-8708
rehensive	-8709
▁argument	-8710
▁arranged	-8711
▁barriers	-8712
▁cambodia	-8713
▁consolid	-8714
▁generals	-8715
▁machines	-8716
▁opposite	-8717
▁pressing	-8718
▁realized	-8719
▁scandals	-8720
▁shortage	-8721
▁subprime	-8722
▁terminal	-8723
▁warrants	-8724
▁yourself	-8725
▁amendment	-8726
▁continent	-8727
▁excessive	-8728
▁generated	-8729
▁incumbent	-8730
▁prevented	-8731
▁primarily	-8732
▁publicist	-8733
▁resolving	-8734
▁reviewing	-8735
▁unpopular	-8736
▁accounting	-8737
▁checkpoint	-8738
▁contribute	-8739
▁critically	-8740
▁guidelines	-8741
▁immigrants	-8742
▁midfielder	-8743
▁peacefully	-8744
▁pronounced	-8745
▁recovering	-8746
▁undergoing	-8747
▁appearances	-8748
▁combination	-8749
▁competitive	-8750
▁mountainous	-8751
▁operational	-8752
▁publication	-8753
▁replacement	-8754
▁preparations	-8755
▁prostitution	-8756
▁photographers	-8757
▁reconstruction	-8758
tv	-8759
ahn	-8760
bil	-8761
can	-8762
fit	-8763
ils	-8764
una	-8765
▁05	-8766
beat	-8767
bons	-8768
fish	-8769
icut	-8770
ifer	-8771
illy	-8772
itar	-8773
odes	-8774
onna	-8775
rome	-8776
teen	-8777
▁aig	-8778
▁hos	-8779
▁inh	-8780
▁nah	-8781
▁rug	-8782
▁wol	-8783
angel	-8784
irmed	-8785
peace	-8786
print	-8787
▁1988	-8788
▁2011	-8789
▁auth	-8790
▁bans	-8791
▁cape	-8792
▁cher	-8793
▁clim	-8794
▁curt	-8795
▁ivan	-8796
▁ling	-8797
▁luis	-8798
▁owns	-8799
▁synd	-8800
▁taxi	-8801
▁ware	-8802
▁wool	-8803
adishu	-8804
closed	-8805
father	-8806
manuel	-8807
ompson	-8808
▁aster	-8809
▁blind	-8810
▁bruni	-8811
▁finds	-8812
▁hindu	-8813
▁hosts	-8814
▁jewel	-8815
▁nawaz	-8816
▁pages	-8817
▁print	-8818
▁remem	-8819
▁rings	-8820
▁roles	-8821
▁samar	-8822
▁serge	-8823
▁sworn	-8824
▁tanks	-8825
▁tries	-8826
station	-8827
▁adjust	-8828
▁angela	-8829
▁borrow	-8830
▁dakota	-8831
▁diyala	-8832
▁exiled	-8833
▁insult	-8834
▁locals	-8835
▁madoff	-8836
▁oppose	-8837
▁piracy	-8838
▁ransom	-8839
▁rarely	-8840
▁reveal	-8841
▁scramb	-8842
▁sealed	-8843
▁silver	-8844
▁stones	-8845
▁toilet	-8846
▁traded	-8847
ographic	-8848
zenegger	-8849
▁abusing	-8850
▁checked	-8851
▁doubled	-8852
▁fleeing	-8853
▁gazprom	-8854
▁hostile	-8855
▁ignored	-8856
▁mercury	-8857
▁motorcy	-8858
▁powered	-8859
▁prophet	-8860
▁reverse	-8861
▁smashed	-8862
▁toronto	-8863
▁animated	-8864
▁asteroid	-8865
▁exciting	-8866
▁freezing	-8867
▁heathrow	-8868
▁nominees	-8869
▁rhetoric	-8870
▁severely	-8871
▁suburban	-8872
▁superior	-8873
▁teaching	-8874
▁thompson	-8875
▁appearing	-8876
▁confessed	-8877
▁connected	-8878
▁discrimin	-8879
▁expanding	-8880
▁factories	-8881
▁installed	-8882
▁mogadishu	-8883
▁orchestra	-8884
▁selection	-8885
▁somewhere	-8886
▁underwent	-8887
▁challenged	-8888
▁greenpeace	-8889
▁performing	-8890
▁professors	-8891
▁satellites	-8892
▁astronomers	-8893
▁comfortable	-8894
▁connecticut	-8895
▁dismantling	-8896
▁maintaining	-8897
▁statistical	-8898
▁temperature	-8899
▁manipulation	-8900
▁registration	-8901
▁comprehensive	-8902
▁schwarzenegger	-8903
eg	-8904
ii	-8905
adi	-8906
equ	-8907
hus	-8908
kir	-8909
tic	-8910
yah	-8911
▁lg	-8912
▁mi	-8913
adic	-8914
argo	-8915
bean	-8916
ione	-8917
rics	-8918
uson	-8919
▁bra	-8920
▁bry	-8921
▁kum	-8922
▁mol	-8923
▁rit	-8924
▁sod	-8925
▁tip	-8926
▁zap	-8927
allah	-8928
aping	-8929
aware	-8930
cript	-8931
qtada	-8932
ricts	-8933
vinen	-8934
▁blaz	-8935
▁buff	-8936
▁chur	-8937
▁cole	-8938
▁dies	-8939
▁duck	-8940
▁fare	-8941
▁maur	-8942
▁medi	-8943
▁mong	-8944
▁nazi	-8945
▁odds	-8946
▁orth	-8947
▁pear	-8948
▁pure	-8949
▁seok	-8950
▁shep	-8951
▁trav	-8952
▁unre	-8953
▁user	-8954
estone	-8955
hedral	-8956
heimer	-8957
ichiro	-8958
▁allen	-8959
▁argue	-8960
▁bonds	-8961
▁boxes	-8962
▁bruce	-8963
▁gases	-8964
▁holes	-8965
▁magic	-8966
▁marry	-8967
▁overs	-8968
▁param	-8969
▁quant	-8970
▁rawal	-8971
▁reass	-8972
▁recyc	-8973
▁remin	-8974
▁spray	-8975
▁stall	-8976
▁sympt	-8977
iciency	-8978
▁aiming	-8979
▁barred	-8980
▁basket	-8981
▁bolton	-8982
▁bottle	-8983
▁burial	-8984
▁hidden	-8985
▁hijack	-8986
▁incent	-8987
▁islets	-8988
▁murphy	-8989
▁preced	-8990
▁revers	-8991
▁strang	-8992
▁subway	-8993
▁twelve	-8994
▁urgent	-8995
▁useful	-8996
▁alberto	-8997
▁anybody	-8998
▁arguing	-8999
▁assured	-9000
▁ballots	-9001
▁climbed	-9002
▁crocker	-9003
▁denmark	-9004
▁equival	-9005
▁fastest	-9006
▁gesture	-9007
▁hosting	-9008
▁intimid	-9009
▁lengthy	-9010
▁paulson	-9011
▁picking	-9012
▁prayers	-9013
▁predict	-9014
▁purport	-9015
▁rehabil	-9016
▁secured	-9017
▁sevilla	-9018
▁shouted	-9019
▁wrongdo	-9020
▁adoption	-9021
▁atlantis	-9022
▁commemor	-9023
▁customer	-9024
▁disorder	-9025
▁employed	-9026
▁enormous	-9027
▁entirely	-9028
▁expanded	-9029
▁expelled	-9030
▁ferguson	-9031
▁johndroe	-9032
▁managing	-9033
▁pointing	-9034
▁romantic	-9035
▁sciences	-9036
▁sudanese	-9037
▁survival	-9038
▁sweeping	-9039
▁theaters	-9040
▁adventure	-9041
▁antarctic	-9042
▁carefully	-9043
▁cathedral	-9044
▁considers	-9045
▁introduce	-9046
▁maintains	-9047
▁principal	-9048
▁taiwanese	-9049
▁withdrawn	-9050
▁automakers	-9051
▁ceremonies	-9052
▁dispatched	-9053
▁evacuation	-9054
▁qualifying	-9055
▁strategist	-9056
▁billionaire	-9057
▁spectacular	-9058
▁willingness	-9059
▁applications	-9060
▁photographer	-9061
▁participating	-9062
ja	-9063
asy	-9064
iko	-9065
kei	-9066
▁08	-9067
▁oz	-9068
▁wu	-9069
frey	-9070
inks	-9071
isan	-9072
mble	-9073
onte	-9074
pers	-9075
▁afp	-9076
▁gut	-9077
▁nel	-9078
▁nix	-9079
▁nur	-9080
▁sid	-9081
▁ted	-9082
▁uss	-9083
armed	-9084
atoes	-9085
grade	-9086
munic	-9087
pindi	-9088
ramid	-9089
▁bold	-9090
▁cord	-9091
▁desk	-9092
▁dodi	-9093
▁gwan	-9094
▁hell	-9095
▁jama	-9096
▁lisa	-9097
▁pist	-9098
▁rash	-9099
▁raul	-9100
▁scul	-9101
▁shim	-9102
▁sued	-9103
▁ther	-9104
▁trem	-9105
arotti	-9106
awatra	-9107
giving	-9108
mother	-9109
tanbul	-9110
▁adapt	-9111
▁carib	-9112
▁depos	-9113
▁eager	-9114
▁fixed	-9115
▁guest	-9116
▁hired	-9117
▁horta	-9118
▁incor	-9119
▁ivory	-9120
▁lucky	-9121
▁mcdon	-9122
▁moroc	-9123
▁ninth	-9124
▁oprah	-9125
▁ranch	-9126
▁revel	-9127
▁spraw	-9128
▁tired	-9129
▁uribe	-9130
▁villa	-9131
▁weren	-9132
▁yards	-9133
osexual	-9134
▁carpet	-9135
▁covers	-9136
▁duties	-9137
▁enthus	-9138
▁fabric	-9139
▁franco	-9140
▁honest	-9141
▁incurs	-9142
▁iphone	-9143
▁kicked	-9144
▁knight	-9145
▁mining	-9146
▁mortar	-9147
▁mutual	-9148
▁overha	-9149
▁parker	-9150
▁please	-9151
▁propag	-9152
▁random	-9153
▁retrie	-9154
▁spaces	-9155
▁suffer	-9156
▁tissue	-9157
ilateral	-9158
▁captors	-9159
▁caracas	-9160
▁closure	-9161
▁counted	-9162
▁engines	-9163
▁exhibit	-9164
▁filming	-9165
▁handful	-9166
▁indians	-9167
▁inmates	-9168
▁madonna	-9169
▁neutral	-9170
▁posting	-9171
▁pyramid	-9172
▁revenge	-9173
▁subsequ	-9174
▁tripoli	-9175
▁typical	-9176
▁winfrey	-9177
▁bacteria	-9178
▁branches	-9179
▁broadway	-9180
▁brussels	-9181
▁disclose	-9182
▁formerly	-9183
▁generate	-9184
▁hometown	-9185
▁istanbul	-9186
▁jennifer	-9187
▁mourning	-9188
▁occupied	-9189
▁phenomen	-9190
▁refusing	-9191
▁regarded	-9192
▁volatile	-9193
▁ambitious	-9194
▁associate	-9195
▁candidacy	-9196
▁collected	-9197
▁crocodile	-9198
▁donations	-9199
▁elaborate	-9200
▁epicenter	-9201
▁essential	-9202
▁explained	-9203
▁financing	-9204
▁landscape	-9205
▁pavarotti	-9206
▁pregnancy	-9207
▁proposals	-9208
▁sponsored	-9209
▁supporter	-9210
▁technique	-9211
▁elementary	-9212
▁extinction	-9213
▁households	-9214
▁rawalpindi	-9215
▁reputation	-9216
▁restricted	-9217
▁shinawatra	-9218
▁application	-9219
▁businessman	-9220
▁celebrating	-9221
▁contributed	-9222
▁criticizing	-9223
▁educational	-9224
▁influential	-9225
▁obligations	-9226
▁participation	-9227
la	-9228
no	-9229
380	-9230
amy	-9231
lan	-9232
weg	-9233
zer	-9234
zes	-9235
▁01	-9236
▁09	-9237
anol	-9238
care	-9239
hart	-9240
icef	-9241
ilia	-9242
nold	-9243
umin	-9244
umph	-9245
▁450	-9246
▁duc	-9247
▁joy	-9248
▁kit	-9249
▁liv	-9250
▁mao	-9251
▁mdc	-9252
▁rud	-9253
▁suv	-9254
▁voc	-9255
▁yan	-9256
▁zar	-9257
agger	-9258
charg	-9259
gging	-9260
inson	-9261
isons	-9262
kirts	-9263
opard	-9264
udhry	-9265
▁adam	-9266
▁amin	-9267
▁blog	-9268
▁brib	-9269
▁echo	-9270
▁fisc	-9271
▁gram	-9272
▁hate	-9273
▁hind	-9274
▁juan	-9275
▁lion	-9276
▁marg	-9277
▁rent	-9278
▁rove	-9279
▁shoe	-9280
▁sway	-9281
▁tang	-9282
▁unsu	-9283
▁webs	-9284
ouring	-9285
rising	-9286
teries	-9287
ushkin	-9288
▁accur	-9289
▁clark	-9290
▁clues	-9291
▁depth	-9292
▁disgr	-9293
▁drunk	-9294
▁gangs	-9295
▁gonna	-9296
▁guess	-9297
▁haiti	-9298
▁merch	-9299
▁mines	-9300
▁nixon	-9301
▁plate	-9302
▁pusan	-9303
▁ranks	-9304
▁rifle	-9305
▁shame	-9306
▁smart	-9307
▁spots	-9308
▁squee	-9309
▁stick	-9310
▁tampa	-9311
ancourt	-9312
itorial	-9313
respons	-9314
uations	-9315
▁anthem	-9316
▁autops	-9317
▁destro	-9318
▁diabet	-9319
▁dumped	-9320
▁empire	-9321
▁explan	-9322
▁greens	-9323
▁guided	-9324
▁indict	-9325
▁infilt	-9326
▁intent	-9327
▁invent	-9328
▁manila	-9329
▁medics	-9330
▁nikkei	-9331
▁norway	-9332
▁paraly	-9333
▁pepper	-9334
▁premie	-9335
▁resemb	-9336
▁sacrif	-9337
▁smooth	-9338
▁suppli	-9339
▁surged	-9340
▁titled	-9341
▁transp	-9342
▁travol	-9343
▁tribun	-9344
▁unicef	-9345
▁wooden	-9346
▁automob	-9347
▁bedroom	-9348
▁dispers	-9349
▁dragged	-9350
▁forests	-9351
▁forming	-9352
▁helmand	-9353
▁knowing	-9354
▁mammoth	-9355
▁montana	-9356
▁murders	-9357
▁offense	-9358
▁petrole	-9359
▁portray	-9360
▁publish	-9361
▁restart	-9362
▁surpass	-9363
▁triumph	-9364
▁attacker	-9365
▁chaudhry	-9366
▁discount	-9367
▁elevator	-9368
▁facebook	-9369
▁glaciers	-9370
▁hearings	-9371
▁johnston	-9372
▁monitors	-9373
▁outgoing	-9374
▁quarters	-9375
▁releases	-9376
▁restored	-9377
▁revision	-9378
▁shouting	-9379
▁somebody	-9380
▁symptoms	-9381
▁textbook	-9382
▁thorough	-9383
▁argentine	-9384
▁arguments	-9385
▁attackers	-9386
▁bloomberg	-9387
▁breathing	-9388
▁caribbean	-9389
▁cautioned	-9390
▁desperate	-9391
▁kilometer	-9392
▁musicians	-9393
▁outskirts	-9394
▁slaughter	-9395
▁smuggling	-9396
▁unsuccess	-9397
▁airstrikes	-9398
▁betancourt	-9399
▁engagement	-9400
▁equivalent	-9401
▁guarantees	-9402
▁pichushkin	-9403
▁stronghold	-9404
▁transplant	-9405
▁forecasters	-9406
▁predecessor	-9407
▁prestigious	-9408
▁territorial	-9409
▁demonstrated	-9410
▁intervention	-9411
▁thanksgiving	-9412
▁interrogation	-9413
agu	-9414
erb	-9415
oca	-9416
vis	-9417
yad	-9418
ader	-9419
ails	-9420
cars	-9421
iary	-9422
isen	-9423
lein	-9424
lete	-9425
name	-9426
phan	-9427
zhou	-9428
▁alz	-9429
▁bos	-9430
▁cin	-9431
▁clo	-9432
▁dir	-9433
▁hay	-9434
▁hip	-9435
▁hog	-9436
▁jab	-9437
▁kuz	-9438
▁nab	-9439
▁nan	-9440
▁sib	-9441
▁ups	-9442
▁zah	-9443
akash	-9444
arity	-9445
chell	-9446
front	-9447
lando	-9448
ouses	-9449
terns	-9450
wered	-9451
▁arts	-9452
▁bish	-9453
▁blat	-9454
▁brid	-9455
▁caff	-9456
▁ebay	-9457
▁fifa	-9458
▁gift	-9459
▁icon	-9460
▁nose	-9461
▁pier	-9462
▁qari	-9463
▁slip	-9464
▁tips	-9465
▁tong	-9466
▁usfk	-9467
▁aging	-9468
▁aquar	-9469
▁burns	-9470
▁farms	-9471
▁files	-9472
▁grace	-9473
▁jeong	-9474
▁lynch	-9475
▁maine	-9476
▁pants	-9477
▁ports	-9478
▁pride	-9479
▁seren	-9480
▁sized	-9481
▁tools	-9482
▁truly	-9483
▁wayne	-9484
regular	-9485
working	-9486
▁breach	-9487
▁breaks	-9488
▁cannes	-9489
▁crunch	-9490
▁drinks	-9491
▁halted	-9492
▁kimchi	-9493
▁muscle	-9494
▁norweg	-9495
▁passes	-9496
▁routes	-9497
▁sounds	-9498
▁stated	-9499
▁tennis	-9500
▁tragic	-9501
▁trails	-9502
children	-9503
▁automot	-9504
▁brigade	-9505
▁extinct	-9506
▁gunshot	-9507
▁mothers	-9508
▁orlando	-9509
▁outpost	-9510
▁persons	-9511
▁planets	-9512
▁recruit	-9513
▁shepher	-9514
▁shooter	-9515
▁stewart	-9516
▁venture	-9517
▁advisers	-9518
▁aquarium	-9519
▁belonged	-9520
▁captives	-9521
▁counties	-9522
▁defeated	-9523
▁diabetes	-9524
▁evacuate	-9525
▁factions	-9526
▁imminent	-9527
▁involves	-9528
▁optimism	-9529
▁restruct	-9530
▁shutting	-9531
▁stopping	-9532
▁summoned	-9533
▁afterward	-9534
▁alzheimer	-9535
▁breakfast	-9536
▁defectors	-9537
▁economics	-9538
▁endeavour	-9539
▁ethiopian	-9540
▁existence	-9541
▁extending	-9542
▁fortified	-9543
▁framework	-9544
▁policemen	-9545
▁protested	-9546
▁provision	-9547
▁publisher	-9548
▁reinforce	-9549
▁solutions	-9550
▁substance	-9551
▁tentative	-9552
▁affiliated	-9553
▁biological	-9554
▁describing	-9555
▁electrical	-9556
▁emphasized	-9557
▁overturned	-9558
▁preventing	-9559
▁researcher	-9560
▁acknowledge	-9561
▁contractors	-9562
▁endorsement	-9563
▁examination	-9564
▁inspections	-9565
▁legislators	-9566
▁retaliation	-9567
▁difficulties	-9568
▁traditionally	-9569
uo	-9570
uy	-9571
eta	-9572
ofi	-9573
oty	-9574
▁bm	-9575
abao	-9576
anny	-9577
arre	-9578
case	-9579
heon	-9580
iors	-9581
mann	-9582
play	-9583
▁192	-9584
▁dok	-9585
▁imf	-9586
▁jos	-9587
▁kan	-9588
▁kas	-9589
▁nag	-9590
▁nod	-9591
▁tag	-9592
▁vic	-9593
▁wip	-9594
aired	-9595
cedes	-9596
itled	-9597
orous	-9598
▁1981	-9599
▁bart	-9600
▁chim	-9601
▁craw	-9602
▁dana	-9603
▁estr	-9604
▁grim	-9605
▁hike	-9606
▁indo	-9607
▁joon	-9608
▁mitt	-9609
▁okin	-9610
▁pact	-9611
▁peer	-9612
▁root	-9613
▁shia	-9614
▁soul	-9615
▁stab	-9616
▁ster	-9617
▁tayy	-9618
▁warn	-9619
▁wrap	-9620
ishing	-9621
rition	-9622
▁asset	-9623
▁atroc	-9624
▁dealt	-9625
▁dynam	-9626
▁enact	-9627
▁fujim	-9628
▁inner	-9629
▁irbil	-9630
▁kinds	-9631
▁minim	-9632
▁opera	-9633
▁poore	-9634
▁scrut	-9635
▁surpl	-9636
▁swall	-9637
▁swing	-9638
▁uncom	-9639
▁undis	-9640
esterol	-9641
▁affair	-9642
▁crater	-9643
▁discip	-9644
▁fairly	-9645
▁jiabao	-9646
▁manner	-9647
▁mirror	-9648
▁overth	-9649
▁parade	-9650
▁rating	-9651
▁refuse	-9652
▁remind	-9653
▁slowly	-9654
▁soared	-9655
▁amazing	-9656
▁artific	-9657
▁authors	-9658
▁beatles	-9659
▁bernard	-9660
▁beverly	-9661
▁clients	-9662
▁dancing	-9663
▁gibbons	-9664
▁infring	-9665
▁rolling	-9666
▁samarra	-9667
▁substit	-9668
▁undersc	-9669
▁utility	-9670
▁actively	-9671
▁airplane	-9672
▁damaging	-9673
▁dispatch	-9674
▁holidays	-9675
▁humanity	-9676
▁imperial	-9677
▁investor	-9678
▁lifetime	-9679
▁lighting	-9680
▁margaret	-9681
▁mercedes	-9682
▁mitchell	-9683
▁pipeline	-9684
▁predomin	-9685
▁sessions	-9686
▁sleeping	-9687
▁supervis	-9688
▁takeover	-9689
▁threaten	-9690
▁tribunal	-9691
▁youngest	-9692
▁colleague	-9693
▁dedicated	-9694
▁describes	-9695
▁exchanges	-9696
▁favorable	-9697
▁fishermen	-9698
▁irrespons	-9699
▁kurdistan	-9700
▁mentioned	-9701
▁privately	-9702
▁prolonged	-9703
▁purported	-9704
▁shattered	-9705
▁sophistic	-9706
▁sprawling	-9707
▁challenger	-9708
▁devastated	-9709
▁precaution	-9710
▁psychology	-9711
▁regulators	-9712
▁cholesterol	-9713
▁citizenship	-9714
▁coordinated	-9715
▁pornography	-9716
▁recognition	-9717
▁technically	-9718
▁assassinated	-9719
▁approximately	-9720
▁restructuring	-9721
cr	-9722
dr	-9723
bid	-9724
chs	-9725
hew	-9726
iac	-9727
lev	-9728
▁hi	-9729
▁uf	-9730
adow	-9731
araz	-9732
athy	-9733
ello	-9734
heit	-9735
rors	-9736
stan	-9737
thel	-9738
▁abn	-9739
▁dot	-9740
▁fet	-9741
▁hui	-9742
▁hyp	-9743
▁nfl	-9744
▁rou	-9745
ierra	-9746
world	-9747
▁1982	-9748
▁abor	-9749
▁bash	-9750
▁flic	-9751
▁hans	-9752
▁kcna	-9753
▁kofi	-9754
▁lobb	-9755
▁lock	-9756
▁melt	-9757
▁nerv	-9758
▁qass	-9759
▁rend	-9760
▁scri	-9761
▁unch	-9762
▁vest	-9763
▁wage	-9764
▁wang	-9765
iotics	-9766
lessly	-9767
ortium	-9768
▁ammun	-9769
▁arena	-9770
▁banco	-9771
▁bulls	-9772
▁corre	-9773
▁croat	-9774
▁cryst	-9775
▁dated	-9776
▁donor	-9777
▁famed	-9778
▁ferry	-9779
▁folks	-9780
▁incon	-9781
▁midst	-9782
▁paral	-9783
▁races	-9784
▁remov	-9785
▁rider	-9786
▁roots	-9787
▁stuck	-9788
▁voter	-9789
▁wazir	-9790
▁wheat	-9791
▁wings	-9792
▁ambush	-9793
▁divide	-9794
▁doubts	-9795
▁edward	-9796
▁gotten	-9797
▁hubble	-9798
▁hunter	-9799
▁legacy	-9800
▁monkey	-9801
▁nelson	-9802
▁organs	-9803
▁oscars	-9804
▁perino	-9805
▁praise	-9806
▁puerto	-9807
▁racial	-9808
▁sensit	-9809
▁slowed	-9810
▁stream	-9811
▁visual	-9812
▁waving	-9813
▁youths	-9814
▁autopsy	-9815
▁battled	-9816
▁britney	-9817
▁chicken	-9818
▁clooney	-9819
▁conglom	-9820
▁conting	-9821
▁dignity	-9822
▁embrace	-9823
▁evangel	-9824
▁gaining	-9825
▁gunfire	-9826
▁okinawa	-9827
▁painful	-9828
▁pursuit	-9829
▁rampage	-9830
▁saakash	-9831
▁setback	-9832
▁shipman	-9833
▁swedish	-9834
▁undergo	-9835
▁bathroom	-9836
▁cautious	-9837
▁deadlock	-9838
▁designer	-9839
▁distress	-9840
▁eligible	-9841
▁equipped	-9842
▁imported	-9843
▁overhaul	-9844
▁patterns	-9845
▁russians	-9846
▁scholars	-9847
▁shelters	-9848
▁sporting	-9849
▁stunning	-9850
▁survivor	-9851
▁thoughts	-9852
▁conscious	-9853
▁declining	-9854
▁depending	-9855
▁disrupted	-9856
▁finishing	-9857
▁incursion	-9858
▁irregular	-9859
▁petroleum	-9860
▁practices	-9861
▁purchased	-9862
▁screening	-9863
▁witnessed	-9864
▁ammunition	-9865
▁automotive	-9866
▁capability	-9867
▁chairwoman	-9868
▁consortium	-9869
▁dissidents	-9870
▁encouraged	-9871
▁enterprise	-9872
▁invitation	-9873
▁retirement	-9874
▁antibiotics	-9875
▁commitments	-9876
▁grandfather	-9877
▁grandmother	-9878
▁intensified	-9879
▁interesting	-9880
▁partnership	-9881
▁saakashvili	-9882
▁territories	-9883
▁peacekeepers	-9884
▁performances	-9885
▁telecommunic	-9886
▁determination	-9887
▁neighborhoods	-9888
▁relationships	-9889
▁counterfeiting	-9890
▁implementation	-9891
din	-9892
hev	-9893
how	-9894
icy	-9895
iza	-9896
mao	-9897
mes	-9898
olo	-9899
rov	-9900
rup	-9901
say	-9902
the	-9903
urn	-9904
▁jr	-9905
▁mw	-9906
▁yu	-9907
alay	-9908
asty	-9909
hasa	-9910
heng	-9911
iane	-9912
iley	-9913
opez	-9914
oult	-9915
quba	-9916
roph	-9917
rows	-9918
spec	-9919
unes	-9920
▁101	-9921
▁135	-9922
▁ana	-9923
▁bee	-9924
▁bok	-9925
▁bun	-9926
▁cri	-9927
▁mam	-9928
▁mes	-9929
▁oak	-9930
▁poc	-9931
▁rab	-9932
▁raw	-9933
▁raz	-9934
▁tea	-9935
▁yog	-9936
bered	-9937
earns	-9938
eling	-9939
fires	-9940
icing	-9941
ighed	-9942
jiang	-9943
lings	-9944
ushed	-9945
▁1945	-9946
▁andy	-9947
▁apec	-9948
▁aziz	-9949
▁bali	-9950
▁crem	-9951
▁fitz	-9952
▁gill	-9953
▁gran	-9954
▁hadn	-9955
▁hwan	-9956
▁intr	-9957
▁	-9958
e	-9959
a	-9960
t	-9961
i	-9962
n	-9963
o	-9964
s	-9965
r	-9966
h	-9967
d	-9968
l	-9969
c	-9970
u	-9971
m	-9972
p	-9973
f	-9974
g	-9975
w	-9976
y	-9977
b	-9978
.	-9979
,	-9980
v	-9981
k	-9982
0	-9983
j	-9984
1	-9985
x	-9986
2	-9987
z	-9988
q	-9989
5	-9990
3	-9991
9	-9992
4	-9993
6	-9994
8	-9995
